, 166046266
. 123352115
và 41673512
của 40984808
là 30371844
các 28379720
có 27271721
được 26186884
trong 24557467
cho 23269328
đã 22366192
với 20664171
một 19040364
không 18615956
người 17866310
) 16565838
( 16543344
những 16056149
" 14930822
này 14740383
để 14488011
ở 13490516
khi 13164785
: 12890873
về 12732364
năm 12598826
đến 12551778
- 12068119
cũng 11262713
vào 11257852
trên 11150236
tại 10882484
nhiều 10863219
đó 10740353
sẽ 10671709
từ 10650528
ra 10560426
phải 8727408
như 8159668
ngày 8039284
lại 7985060
bị 7698505
ông 7455928
làm 7386343
hơn 6920773
việc 6639538
còn 6581803
nhưng 6504177
đang 6431419
sau 6317279
thì 6258980
biết 6226148
Việt_Nam 5938099
đi 5861464
nước 5844575
rất 5723125
mới 5667604
sự 5654489
có_thể 5525997
theo 5363749
mà 5325776
; 5212828
chỉ 5189621
nhất 5186283
mình 5180371
nhà 5007333
tôi 4799345
trước 4742842
lên 4694177
con 4629022
vẫn 4616573
tới 4602427
2 4584925
nên 4545804
tháng 4492384
Theo 4463109
đồng 4423309
cùng 4377541
hai 4305930
anh 4267809
cao 4166221
khác 4165206
họ 4079682
rằng 4070339
bạn 4049773
qua 3992860
vì 3908664
do 3819597
Trong 3780848
Mỹ 3764800
cả 3719238
/ 3672914
nói 3668736
đây 3603306
tỉnh 3601946
1 3577281
số 3531014
lần 3498955
chưa 3494770
lớn 3452235
' 3391315
xe 3334909
cô 3322604
3 3316770
thấy 3267759
đường 3113379
cuộc 3098374
đưa 3056189
thực_hiện 3045062
triệu 3022058
? 3017140
cần 3016307
tổ_chức 2997293
sử_dụng 2981764
hay 2949379
hàng 2922354
Hà_Nội 2900226
bằng 2890559
khiến 2862440
tiền 2858688
gần 2821531
Bộ 2726608
tuổi 2724471
đầu 2688429
tăng 2654857
thứ 2636683
thời_gian 2617875
đều 2610736
hoạt_động 2610708
giá 2607172
phát_triển 2565261
... 2544755
nay 2525222
khoảng 2511307
nhau 2470339
cách 2464282
gây 2463694
xây_dựng 2459771
nào 2455231
thêm 2411059
Ảnh 2405406
bên 2401651
Các 2374661
giữa 2369967
gì 2349408
huyện 2347724
từng 2342526
hoặc 2325690
chiếc 2321495
Tuy_nhiên 2317955
nhận 2313934
bà 2304076
mang 2303124
Anh 2300103
đầu_tư 2299284
chính 2296271
khu_vực 2234360
gia_đình 2224882
Sau 2198718
4 2151080
vừa 2139363
Trung_Quốc 2133194
loại 2128217
tốt 2126388
Ông 2124485
dự_án 2123968
bán 2117131
giúp 2108545
một_số 2087404
5 2073774
Nga 2067041
dùng 2036691
xã 2034047
trẻ 2022703
vụ 2016205
đất 2009574
người_dân 1998792
cấp 1990178
rồi 1989442
nếu 1986983
điều 1986673
mức 1985591
tỷ 1975425
thuộc 1974654
mua 1974102
nơi 1971189
đối_với 1952875
đầu_tiên 1949386
điểm 1947127
em 1929244
tiếp_tục 1929229
thông_tin 1914136
trận 1904249
giảm 1902828
thế_giới 1898046
tạo 1880918
tin 1873771
thi 1863325
muốn 1855374
ăn 1851066
quá 1850038
mỗi 1833474
tham_gia 1828625
mọi 1817386
đạt 1816460
quy_định 1794811
10 1792913
doanh_nghiệp 1787754
trường 1784009
chị 1776775
thành_phố 1763364
bộ 1753962
phía 1750268
Những 1732857
Tôi 1727673
lúc 1690760
vấn_đề 1689234
tên 1676824
học 1674565
bởi 1671577
cái 1668267
thị_trường 1667019
đội 1664297
ngoài 1645610
USD 1631920
diễn 1630567
phần 1628094
nó 1612993
giờ 1605900
kinh_tế 1599430
đặc_biệt 1599050
sống 1596384
luôn 1584428
ta 1581633
gái 1581260
nhỏ 1578388
tìm 1569372
ấy 1568835
Một 1568591
gặp 1563991
vốn 1560376
6 1556861
so 1542344
công_tác 1528796
giải 1523352
ngay 1518123
Chủ_tịch 1502367
Khi 1500527
hệ_thống 1485575
TP 1482548
xảy 1482011
ngành 1481829
sản_xuất 1477091
quốc_gia 1457005
đẹp 1455210
khả_năng 1454036
quản_lý 1442205
quyết_định 1440930
biển 1440371
công_ty 1438377
UBND 1425166
sản_phẩm 1424598
phim 1421256
xã_hội 1420538
Phó 1419090
mẹ 1417669
chương_trình 1416991
cơ_quan 1412963
nhằm 1407358
lấy 1403883
mất 1401233
vùng 1400610
nhóm 1400189
ai 1390535
lời 1374456
không_thể 1374452
dưới 1369985
khá 1367652
Đây 1359015
chúng_tôi 1357837
ảnh 1357209
yêu_cầu 1353655
chủ 1346274
đúng 1338855
chia_sẻ 1330483
mạng 1323642
Công_ty 1321704
hỗ_trợ 1318598
phòng 1304932
Nhưng 1304278
tính 1304104
sang 1303804
địa_phương 1303016
rõ 1300562
sáng 1297725
trở_thành 1295145
giữ 1294555
bóng 1290864
thành 1289321
mùa 1287495
đơn_vị 1286335
xem 1279054
tay 1274390
xuống 1272555
bé 1272427
nguồn 1268295
xử_lý 1266732
thường 1265375
đủ 1262213
Nếu 1258389
liên_quan 1256690
Chính_phủ 1255649
khu 1246509
7 1245615
quận 1244820
Ngày 1244755
đặt 1242460
Với 1239545
làm_việc 1236477
vòng 1218144
Thủ_tướng 1215962
loài 1206955
bệnh 1201610
chồng 1194143
gọi 1191046
kinh_doanh 1187791
khó_khăn 1187602
quan_trọng 1179887
quốc_tế 1176435
phát_hiện 1172033
TP. 1170480
chống 1168541
khách 1160753
kể 1159744
bỏ 1158208
nằm 1156881
lực_lượng 1156426
cơ_sở 1147062
kiểm_tra 1146465
ít 1144108
chuyện 1142754
Người 1140173
ba 1137450
Trước 1132717
nữa 1132171
đấu 1127913
Việt 1125164
hết 1124573
cuối 1120180
khỏi 1116753
vàng 1111735
tiếng 1103138
tàu 1103082
Đức 1094547
8 1092698
khó 1089802
bảo_vệ 1088249
triển_khai 1085732
cạnh 1077538
dài 1077435
nhìn 1073361
dành 1071805
chết 1067319
Công_an 1064761
cây 1063520
thu 1062207
ảnh_hưởng 1061618
hiệu_quả 1056664
vợ 1049907
mặt 1048109
khẳng_định 1048016
đánh_giá 1047754
dẫn 1047562
điều_tra 1046060
độ 1045488
chơi 1044980
hiện 1044143
! 1044013
Tại 1043422
HCM 1042404
mạnh 1040858
tự 1040455
tuần 1039106
bài 1038779
du_lịch 1038159
hoa 1032282
chất_lượng 1029836
buổi 1021429
tất_cả 1017876
lãnh_đạo 1015635
kết_quả 1013538
xuất_hiện 1011502
đêm 1011394
chạy 1011289
thời_điểm 1009949
dịch_vụ 1009063
học_sinh 1008873
nữ 1007920
an_toàn 1005830
bắt_đầu 1000666
Từ 997943
chiều 994782
Sở 994369
Tổng_thống 991784
đảm_bảo 990723
gửi 986094
nghiên_cứu 985366
thay_đổi 984955
màu 984343
yêu 982563
đứng 981891
tình_trạng 978418
cán_bộ 973528
chung 968970
sinh 968011
phụ_nữ 955520
trường_hợp 955492
kế_hoạch 954315
điều_kiện 950350
sao 950049
quan_hệ 948770
hình_ảnh 948765
9 946648
môi_trường 941870
2017 941466
đối_tượng 940653
chuyển 940536
20 936254
Điều 934133
thành_công 932313
Năm 929008
cá_nhân 925980
phút 924452
chọn 922178
hiện_nay 916806
cầu_thủ 916388
Ban 913429
báo 913332
vị_trí 906450
trai 905695
chân 905004
12 904734
tấn_công 904394
hỏi 900945
giao_thông 896883
Nhiều 896697
Pháp 893520
máy_bay 893390
dân 893052
Không 891485
tuyến 889313
hướng 888546
HLV 888544
khoa_học 887949
& 886717
lớp 880570
miền 877977
công_nghệ 877676
điện 876520
đáng 874224
đôi 873210
riêng 871468
giá_trị 866778
viết 864396
dù 863818
cung_cấp 863799
nâng 859894
sớm 859258
văn_hoá 858544
quá_trình 852034
thấp 851342
giống 851308
trách_nhiệm 849803
giải_quyết 847339
khách_hàng 845881
gồm 844980
đánh 844714
Nhật_Bản 843202
da 835482
Để 834616
2016 834481
nhanh 834114
tiến_hành 831326
nghĩ 827870
vi_phạm 827004
tập_trung 825079
sông 823827
cuộc_sống 823764
Ngoài_ra 823066
quyền 820593
đá 820286
chính_thức 819714
thành_viên 818443
thiết_kế 816528
thiếu 814145
bước 810234
hoàn_toàn 809116
2018 808046
chính_sách 807865
Có 806728
30 806453
trả 806270
hộ 806243
chúng_ta 805034
đồng_thời 804581
bàn 804070
vượt 802557
quan_tâm 796350
phối_hợp 794553
nội_dung 793873
lao_động 793354
vài 790247
nước_ngoài 789637
sân 788366
lĩnh_vực 784842
Việc 784369
thật 782866
cơ_hội 782384
địa_bàn 779945
nghe 779114
hợp_tác 778712
lượng 777518
món 773423
nhiệm_vụ 772263
câu 772006
thuốc 771741
công_việc 771637
công_trình 770680
dòng 764592
phục_vụ 760136
nặng 760071
báo_cáo 759786
Hàn_Quốc 758671
bắt 755926
hãng 755141
thể_hiện 753204
tài_sản 753156
khán_giả 751339
nam 749200
thích 748598
Nhà_nước 748313
đầy 745114
chuẩn_bị 744884
đề_nghị 744784
mở 744581
phù_hợp 744554
chuyến 743951
chịu 738458
mục_tiêu 738140
đông 738014
đại_diện 737858
nổi_tiếng 737215
“ 737119
phường 734949
máy 733602
Bên 733045
kỳ 732486
giành 732441
chỉ_đạo 732055
hiểu 728357
” 726964
án 724834
càng 723683
chất 722889
nền 722863
cá 721375
thế 720374
ý_kiến 719254
chúng 716601
thực_tế 714233
giao 712810
cháu 712161
công_bố 711870
hát 711506
thuế 708541
mối 708521
đóng 708051
Và 707488
chuyên_gia 705841
trực_tiếp 703310
pháp_luật 702604
mẫu 702155
lễ 701894
hợp_đồng 701340
quay 699255
hành_vi 699072
Nam 698596
trung_tâm 698395
dễ 697408
bất_ngờ 697212
sức_khoẻ 696907
nhờ 696806
như_vậy 695608
chứ 694888
Syria 694708
m 694531
xác_định 694331
điện_thoại 694297
đâu 692294
nhân_dân 691632
xa 688867
lòng 688612
giáo_dục 687659
trở_lại 687593
Đến 685723
giai_đoạn 684777
ngân_hàng 683017
xin 682774
tránh 680512
15 679595
bảng 678888
Quốc_hội 677673
thắng 677237
tăng_cường 674663
bản 673649
Cô 673049
bay 671124
Đảng 669093
Trường 667561
Đà_Nẵng 666427
11 663828
thương_mại 662605
vị 661147
thiết_bị 660332
Bộ_trưởng 659132
an_ninh 658927
cầu 658831
Còn 657743
làng 657199
cũ 652624
nhu_cầu 652267
Ở 650355
thường_xuyên 650106
diện_tích 647422
diễn_viên 646224
đoàn 644287
lựa_chọn 644181
mắt 642919
ngôi 642536
đào_tạo 640906
thậm_chí 640818
quả 640507
bao_gồm 639340
Cục 638822
chính_quyền 638050
sinh_viên 635906
nhân_viên 634028
đàn_ông 632043
thông_qua 631271
uống 630490
hôm 629951
thông_báo 629843
xanh 629484
nghề 628660
cứ 627684
kiểm_soát 627176
2015 627163
một_cách 623218
hoàn_thành 621329
ngồi 620241
Trung_tâm 617994
không_chỉ 617274
khoản 615788
chẳng 613427
toàn 613190
Đó 609747
Cũng 608723
thi_đấu 605177
tuyên_bố 603088
họp 602735
Về 602322
công 602222
trưởng 601891
thí_sinh 601304
lịch_sử 598326
mưa 597082
Bà 596416
giới 596407
trở 596109
chỗ 594916
thuê 594302
rừng 590981
bóng_đá 590071
đoạn 589669
hành_động 589002
đô_thị 588820
chụp 588769
thịt 583625
sở_hữu 583131
Giám_đốc 582760
thực_phẩm 581891
nuôi 580463
100 580309
vay 579999
tổng 579882
tài_chính 577489
lâu 577244
ghi 573132
vậy 572238
suốt 570704
thu_hút 570293
đảo 570197
kỹ_thuật 568873
tình_hình 566745
Tết 566595
vai_trò 566536
cuối_cùng 566478
bức 564458
cộng_đồng 562912
sách 562245
khai_thác 562197
phương_tiện 560661
Hai 559227
biện_pháp 558922
ban 558729
trồng 557837
rộng 557758
đăng_ký 556840
giải_pháp 556310
nhớ 555994
chiếm 553637
liên_tục 552928
ổn_định 551934
tích_cực 551692
ủng_hộ 551029
cơ_thể 550818
nguyên_nhân 550492
áp_dụng 550156
trái 549501
đời 548787
ngày_càng 548497
hồ_sơ 547781
Trung_ương 547142
nhạc 546740
nạn_nhân 545365
Loài 544390
lập 543797
chức_năng 541412
thực_sự 541323
truyền_thống 540436
bản_thân 539717
thăm 539498
Chúng_tôi 538390
ô_tô 538235
tầm 537901
bác_sĩ 537863
nguy_cơ 537801
trang 537738
vừa_qua 536759
vụ_việc 536268
con_người 536023
châu_Âu 535750
chú_ý 535643
bệnh_viện 534420
nợ 534064
vai 533434
sức 532517
Luật 531345
toàn_bộ 531261
thành_lập 530609
máu 529525
ký 526878
ca_sĩ 526867
nhanh_chóng 526667
A 525775
trắng 525340
-@@ 524767
cháy 524400
dừng 524359
nỗ_lực 523957
coi 523228
hạn_chế 522338
sự_kiện 522232
chi_phí 520709
núi 520685
đồ 520391
tên_lửa 518880
chục 517820
điều_trị 517672
Họ 516120
Hồ_Chí_Minh 515841
ứng_dụng 515263
giao_dịch 514844
cho_phép 514711
tấn 513574
bao_giờ 512960
thời 511845
cụ_thể 511343
Hội 509788
Hiện 509110
đất_nước 508388
đỏ 507895
Triều_Tiên 507834
áo 507226
bệnh_nhân 506980
trả_lời 506835
số_lượng 506765
nêu 506346
đứa 506259
2010 505758
mở_rộng 505555
cảnh 504604
tặng 503754
đơn 503194
sâu 502986
lý_do 501931
km 501299
chi 500287
chiến_thắng 499783
2014 495544
chứa 495476
Được 495469
nhà_nước 494038
quân_sự 493057
bổ_sung 493004
hình 492977
cảnh_sát 492827
50 492688
tinh_thần 491973
nhất_là 491474
nghìn 491443
chủ_yếu 489198
vé 488986
tai_nạn 488861
niềm 488723
quân 488459
quân_đội 488082
vô_cùng 486933
kéo_dài 486609
toà 484732
tập 482484
phố 482177
Đông 481728
chính_trị 481484
chăm_sóc 480836
kg 480060
vợ_chồng 479899
cảm_thấy 479075
ĐH 479069
Chỉ 479026
mời 478804
ngủ 478628
giới_thiệu 478038
Nguồn 477728
phí 477608
mấy 477133
Đại_học 476656
kinh_nghiệm 474877
hãy 474277
ca 473901
dự_kiến 473652
góp_phần 473511
nguyên 471913
hồi 471772
in 471220
Dù 470147
hạnh_phúc 469730
trẻ_em 469391
cổ 469209
công_an 469179
+ 468893
nghệ_thuật 468747
Thái_Lan 466180
dịp 466171
công_nghiệp 465607
Ngay 464549
S@@ 464524
Uỷ_ban 464257
dân_tộc 463383
đem 463070
hiện_tại 462916
đáp_ứng 462778
câu_chuyện 462405
trăm 461912
tối 460708
tương_lai 459660
Trên 459582
cậu 458991
quý 458948
quy_hoạch 458901
> 458757
tìm_kiếm 458588
thôi 458187
nhà_đầu_tư 458122
đổ 456205
to 456100
18 455579
rơi 455490
tỉ 454903
trở_nên 454181
phiên 453674
tham_dự 453649
cặp 453451
cho_hay 453325
nóng 453152
tỷ_lệ 453079
tốc_độ 452021
hiện_đại 451186
du_khách 450310
– 449641
M@@ 449566
trang_bị 449361
trao 447913
xuất_khẩu 447415
Bắc 445559
văn_bản 445406
Đặc_biệt 445387
vui 445304
nhấn_mạnh 445121
DN 444771
quê 444041
nghỉ 443245
tăng_trưởng 442998
tiếp 442189
tạm 441745
cắt 441482
bờ 440467
nghiêm_trọng 440083
nghèo 439599
báo_chí 439315
B@@ 439050
16 438290
chính_phủ 438247
ra_mắt 438189
thủ_tục 438084
giám_sát 437970
dự 437243
kiểu 436968
chợ 435908
dầu 435767
Tây 434727
xem_xét 434402
thoả_thuận 434333
hình_thức 433306
sẵn_sàng 433050
tình 432766
dạy 432309
Ấn_Độ 432022
mà_còn 431962
bắn 431195
cười 431136
có_mặt 431073
quán 429829
điều_chỉnh 429676
14 428645
ấn_tượng 428453
hành_chính 428013
rút 427779
kết_hợp 427676
ha 427387
xong 426851
thanh_niên 426570
đại_học 426463
lắm 424708
nguy_hiểm 424578
mạnh_mẽ 424376
giáo_viên 423859
lá 423856
Cùng 423781
kẻ 423212
13 423081
rời 422612
đề_xuất 422261
TTXVN 422226
C 420947
tấm 420444
Bạn 420169
chờ 419924
đơn_giản 418690
y_tế 418616
cần_thiết 416767
cánh 416706
dần 415738
cố_gắng 415347
40 414917
giấy 414899
mong_muốn 414820
xe_máy 414671
T@@ 414389
nổi 414021
sắp 413869
đau 412313
nghệ_sĩ 411091
đọc 410950
chở 410715
đen 410640
Trưởng 410310
vũ_khí 410056
D@@ 410018
cửa 409952
chắc_chắn 409552
chiến_lược 409285
phép 408478
đầy_đủ 407969
IS 407555
tình_cảm 406890
Thế 406854
bị_cáo 406270
môn 405229
vô_địch 405209
Ngoài 405096
hồ 405069
bình_thường 404010
Trung 403710
Chính 403103
buộc 402585
hướng_dẫn 401849
nhập_khẩu 401272
đại_biểu 401155
Hoa_hậu 401124
bảo_đảm 401004
kết_thúc 400783
thay 400174
khoá 400048
cấm 399816
hề 399380
phiên_bản 398635
mắc 398337
Mặc_dù 397234
Vì 397156
sạch 397092
cổ_phiếu 397088
xuất_sắc 396279
trời 395876
thể_thao 395807
kém 395114
lượt 394166
siêu 393512
tầng 392747
CLB 392353
2011 392250
Nguyễn_@@ 392064
mặc 391862
Đoàn 391426
lương 390922
đợt 390844
duy_trì 390038
khối 389121
L@@ 389079
phương_án 389054
căn 389007
Báo 388499
thương_hiệu 387962
dễ_dàng 386628
tác_phẩm 384365
ma_tuý 384324
nắm 384173
Viện 384133
ngân_sách 383340
TPHCM 383269
dựa 383184
Sài_Gòn 382760
2012 382503
yếu_tố 382330
25 381806
Y_tế 381146
đối_thủ 380671
nhẹ 380023
truyền_thông 379832
tử_vong 379791
Dự_án 379647
iPhone 379292
chấp_nhận 379277
thu_nhập 378013
khủng_bố 377428
sai 377397
C@@ 377381
mô_hình 376968
PV 376880
phát 376452
gà 376371
hàng_hoá 376364
Cụ_thể 376256
ĐT 376185
xấu 376082
gắn 375978
sợ 375531
cơ_quan_chức_năng 375498
theo_dõi 374807
bầu 374728
tuyển 374691
T 374490
N@@ 374248
quà 374202
cuốn 373902
Bệnh_viện 373751
minh_hoạ 373725
mục_đích 373675
danh_sách 373609
hội 373535
hạng 373449
kiếm 373375
VN 373119
đóng_góp 371806
cứu 371725
súng 371717
nhà_máy 371552
đón 371259
tờ 370726
thôn 370514
tiêu_dùng 370379
2013 370366
Mỗi 369760
thực_vật 369703
Chị 368980
rau 368687
nông_nghiệp 368653
i 368332
trao_đổi 368024
hôm_nay 367278
cạnh_tranh 367069
sự_nghiệp 366444
nhân_vật 366130
V@@ 365715
s 365314
Phòng 365050
17 364363
ban_hành 363868
pha 363855
tác_động 363388
tự_nhiên 363249
H@@ 363028
mô_tả 360955
kết_nối 360852
thúc_đẩy 360833
Do 360677
cựu 359847
ngắn 359806
thiệt_hại 359806
phạt 359636
video 359635
bạn_bè 359604
hấp_dẫn 359582
lẫn 358669
hàng_đầu 358422
Sự 358214
nộp 358175
dư_luận 358115
nàng 357962
điện_tử 357003
R@@ 356437
cơn 356357
Một_số 356309
ban_đầu 356258
cửa_hàng 355998
phá 355494
chế_độ 355414
hâm_mộ 355129
không_gian 354289
bất_cứ 354056
Cảnh_sát 353225
duy_nhất 353200
thua 352881
bánh 352556
năng_lực 352493
thoát 352346
thi_công 352080
Đối_với 351795
bãi 350569
giả 350521
tranh 350496
màn_hình 349684
gốc 349654
Hội_nghị 349363
Facebook 349208
sữa 348782
nhận_định 348559
kèm 348281
đẩy 348266
24 347699
thị_trấn 347595
Ngân_hàng 347439
thử 347032
trạm 346881
ung_thư 345998
2009 345981
song 345265
sáng_tạo 345029
thân 344269
Tập_đoàn 343822
rượu 343799
chiến_đấu 343716
P@@ 343535
t@@ 342875
biến 342836
bão 342774
thế_hệ 342668
chủ_động 342530
Ukraine 342452
Vụ 342384
biên_giới 342085
19 341949
chữ 341904
lo 341090
trước_đây 340988
chi_tiết 340621
khắc_phục 340568
bố 340515
việc_làm 340430
Vào 339543
t 339281
lợi_ích 339079
Thành 338777
rõ_ràng 338776
âm_nhạc 337894
tình_yêu 337745
lỗi 337714
Khu 337379
tiết_lộ 336989
tiêu_chuẩn 336706
vẻ 336646
xung_quanh 336436
phổ_biến 336062
kịp_thời 335974
bảo 335362
Nhật 335151
chậm 334674
bom 334427
chàng 334361
cảnh_báo 333947
chia 333793
lối 333048
m2 332454
học_tập 332171
liền 331921
Apple 331486
200 331358
y 330354
ngàn 329414
quan_điểm 329254
Thanh_Hoá 329126
dấu_hiệu 329060
d@@ 328401
K@@ 328347
cải_thiện 328294
gấp 328285
sự_việc 327648
A@@ 327079
ý_nghĩa 326724
năng_lượng 326657
Nó 326567
căn_hộ 326454
tóc 326159
B 326065
Đồng_thời 325808
thầy 325115
quy_mô 324596
xây 324481
luật 324480
cam_kết 324386
Lúc 323663
ngôi_sao 323592
bày_tỏ 323577
cha 323163
SN 322316
phóng_viên 322139
hy_vọng 322039
Hội_đồng 321815
đồng_ý 321724
di_chuyển 321590
cơ_bản 320592
gỗ 320048
Cách 319864
nét 319801
nổ 319434
hạ 319340
khắp 319257
Xây_dựng 319247
cổ_phần 319095
gió 319089
tiếp_cận 318296
Vì_vậy 317437
G@@ 317142
ca_khúc 317002
tái 316991
thế_nào 316899
toàn_cầu 316876
sân_bay 316865
sự_cố 316728
diện 316538
khai 316358
tồn_tại 315751
bị_thương 315331
cầm 315117
phong_cách 314836
trải 314543
thay_thế 314479
tội 314360
châu_Á 314197
đe_doạ 314183
đề 313945
Nghệ_An 313720
60 313668
trung_bình 313662
21 313438
khách_sạn 312711
kéo 312649
n@@ 312595
s@@ 312066
điều_khiển 312005
đội_tuyển 311627
cảm_giác 311570
hàng_loạt 311362
phản_ánh 310956
chung_kết 310740
may_mắn 310193
lạnh 310102
thừa_nhận 309867
tối_đa 309307
Cơ_quan 309107
xác_nhận 308698
hưởng 308503
Sáng 308317
kỷ_niệm 308263
Tài_chính 308218
tương_tự 308159
phát_biểu 306756
lửa 306749
Con 306734
quên 306548
gia_tăng 306509
ngon 305942
Qua 305781
nông_thôn 305621
thời_trang 305132
hơi 304839
vận_chuyển 303603
Trump 302519
vận_động 302496
vườn 302411
ghi_nhận 302376
thống_nhất 302174
ngừng 302024
E@@ 301951
bây_giờ 301779
bữa 301489
h@@ 301460
đối_tác 301182
truyền_hình 301147
Hải_Phòng 300970
tự_do 300721
O@@ 300610
Iran 300438
ch@@ 300322
hiện_trường 299496
quảng_cáo 299482
Em 299234
Cả 299209
dân_số 299097
thông_minh 299026
trú 298968
THPT 298915
con_số 298839
kia 298509
e@@ 297803
Trần_@@ 297584
tung 297518
đổi 297208
nhân 297174
sân_khấu 296831
tiết_kiệm 296563
máy_tính 296450
500 296326
thu_hồi 296048
hoàn_thiện 295666
hạt_nhân 295400
tìm_hiểu 295320
ít_nhất 295219
Internet 295163
quanh 294767
thuận_lợi 294655
Thành_phố 294381
căn_cứ 293872
phát_hành 293820
công_khai 293725
nỗi 293550
Thổ_Nhĩ_Kỳ 293494
phân_tích 293208
hè 293020
Hàng 292776
i@@ 292708
bố_mẹ 292255
công_nhân 292235
m@@ 291966
b@@ 291929
phân 291687
trang_phục 291622
tổ 291529
đảng 291352
chú 291297
giọng 291226
c@@ 290821
Malaysia 290809
tuy_nhiên 290790
như_thế_nào 290489
hầu_hết 290307
bang 290245
sát 290162
chặt 289819
bất_kỳ 289348
trị_giá 289311
tỏ 289160
loạt 288904
sàn 288735
tư_vấn 288214
Huế 287452
lạ 287415
cưới 287210
cơm 286717
thủ_đô 286703
vận_tải 286558
hạt 286361
23 286351
thành_tích 285964
lợi_nhuận 285818
hết_sức 285100
bậc 285060
kênh 284885
lệnh 284865
Bí_thư 284226
Chelsea 284167
quỹ 283649
Quốc_gia 283637
khô 283556
Hoa_Kỳ 283384
clip 283309
viên 282696
phương_pháp 282655
Sơn 282305
tội_phạm 282241
Thông_tin 282135
ghế 282087
giàu 281939
Ba 281727
hội_nghị 281714
nửa 281461
nạn 281031
chiến_dịch 280994
hành_khách 280581
22 280406
EU 279992
bối_cảnh 279936
đổi_mới 279855
tiến 279770
giúp_đỡ 279714
màn 279496
kêu_gọi 279383
hút 279369
bất_động_sản 279161
đời_sống 278802
lo_lắng 278701
rẻ 278377
hẳn 278046
nông_dân 277970
The_@@ 277388
cơ_chế 277324
giết 277050
chính_xác 277026
Singapore 276670
Hải 276550
bao 276410
dạng 275860
miêu_tả 275840
đàm_phán 275632
tương_đương 275504
dám 275502
dữ_liệu 275398
nắng 275121
lái 274769
TS 274518
Tổ_chức 274362
Lê_@@ 274172
bò 273920
cân 273904
kết_luận 273901
Thanh 273633
quan_chức 273622
động_cơ 273559
áp_lực 273480
hơn_nữa 273086
bắt_giữ 272915
cao_cấp 272835
cú 272631
p@@ 272432
như_thế 272050
Chương_trình 271954
vỡ 271850
Không_chỉ 271783
tuyên_truyền 271385
k@@ 271023
l@@ 270846
Quản_lý 270630
Tây_Ban_Nha 270469
* 269977
chế_biến 269896
ASEAN 269870
lũ 269816
địa_điểm 269085
Cuộc 269019
thanh_toán 269010
xu_hướng 268621
TNHH 268621
GTVT 267778
Philippines 267708
chắc 267351
huy_động 267050
an 266998
cà_phê 266977
tiếp_theo 266520
Quốc_phòng 266454
tiêu_thụ 266450
thanh_tra 266127
lãi_suất 266063
a 265428
kiến_nghị 265310
thẻ 265309
buồn 265210
khóc 265008
xét 264972
tâm_lý 264905
thất_bại 264812
ngã 264507
phát_huy 264139
Hùng 263718
Do_đó 263578
g@@ 263497
Tổng_cục 263390
2008 263221
đừng 263205
chuyên_môn 262378
Thời_gian 262187
bắc 261719
chiến_tranh 261562
tác_dụng 261495
giải_trí 261081
Tuấn 261046
vệ_sinh 261009
Hiện_nay 260943
chặt_chẽ 260485
cảng 260360
giỏi 260291
Nghị_định 260265
7@@ 260165
trật_tự 260133
sinh_hoạt 260088
căng_thẳng 260016
Indonesia 259745
9@@ 259645
Quyết_định 259536
phản_ứng 259411
nổi_bật 259240
I 259215
8@@ 258472
tình_huống 258099
bầu_cử 258072
doanh_thu 257973
chuyên 257906
biểu_diễn 257766
Như_vậy 257570
liên_tiếp 257111
chuyên_nghiệp 256969
e 256898
tổng_số 256888
phức_tạp 256322
chùa 256131
bụng 256121
300 256111
không_khí 255872
thử_nghiệm 255784
giải_thưởng 255762
chung_cư 255332
sóng 255315
Có_thể 255044
vỏ 254676
đạo_diễn 254478
F@@ 254415
chuẩn 254384
y@@ 253994
đấy 253633
trông 253552
Giá 253509
World_Cup 253459
bốn 252926
tổng_hợp 252687
trình_diễn 252515
Là 251821
chứng_kiến 251651
cụ 251432
có_lẽ 251251
khoe 251135
mới_đây 251095
o 250866
lợi 250855
Hoa 250807
phê_duyệt 250748
thai 250742
x@@ 250617
Thứ_trưởng 250594
mùi 250273
Biển 250173
bức_xúc 250126
gương_mặt 250015
lúa 249900
phương 249530
ngăn_chặn 249336
đồng_chí 248703
giải_thích 248607
ngang 248511
Minh 248404
kiến_thức 248359
tự_tin 248225
Chiều 248149
kịp 247978
Như 247693
bền_vững 247445
tài_khoản 247090
tù 246987
khám 246652
I@@ 246535
chủ_tịch 246244
mã 246040
6@@ 245725
dịch 245719
hành_trình 245329
phẫu_thuật 245029
cấp_cứu 244678
nhắc 244482
Hiện_tại 244434
lái_xe 244317
lễ_hội 244252
cực 244181
phụ_huynh 244146
Google 244132
nhập 244084
góc 243763
Hà_Tĩnh 243680
hợp_lý 243565
Tháng 243324
tốt_nghiệp 243219
từ_chối 243164
rác 242866
nghĩa 242788
X@@ 242496
điều_hành 242216
đăng_tải 242187
Nguyễn_Văn_@@ 242026
Đội 241689
bộ_phận 241538
đòi 241421
mức_độ 241349
hậu_quả 241320
tài_năng 241214
u 241170
Kết_quả 241104
chó 241076
v@@ 241009
khí 240991
chữa 240960
chủ_trương 240770
70 240633
h 240490
tiếp_nhận 240342
xếp 240156
trái_phép 240013
cha_mẹ 239489
năm_ngoái 239453
vận_hành 239383
trụ_sở 239374
o@@ 239342
đua 239298
danh_hiệu 239243
cướp 239102
đạn 239079
n 239077
Vietnam 238991
cuộc_đời 238748
nâng_cấp 238601
bố_trí 238432
Đầu_tư 238320
Hãy 238230
a_@@ 237980
gói 237779
Arsenal 237618
già 237446
nhà_trường 237426
ưu_tiên 237370
đèn 237318
lên_tiếng 237259
vua 236974
cảm_xúc 236944
gạo 236838
mặc_dù 236827
Hà 236757
Thậm_chí 236464
r@@ 236335
vì_vậy 236297
thảo_luận 236096
ng@@ 235946
suy_nghĩ 235787
1.000 235719
đẩy_mạnh 235589
Reuters 235489
Nhà 235365
tác_giả 234968
người_thân 234700
Thái 234552
xứ 234287
Bởi 234169
hiện_tượng 234161
tư 233930
tim 233863
tài_liệu 233758
hoà_bình 233628
đào 233391
e_@@ 233220
tài_xế 233180
Chiếc 233148
Lào 233063
trứng 233058
đối_mặt 232932
game 232875
GD 232812
tập_đoàn 232716
bà_con 232573
xinh_đẹp 232507
hình_thành 232332
phần_mềm 232203
băng 231906
sức_mạnh 231515
lợn 231471
thư 230919
Ch@@ 230880
đập 230841
Hồ 230387
hoá 230308
diễn_biến 230276
thưởng 229897
chủ_đề 229869
26 229570
viêm 229454
Nghị_quyết 229070
28 228920
phụ 228702
dây 228518
thú_vị 228124
ar@@ 227954
lao 227896
_@@ 227892
Giáo_dục 227663
tình_dục 227392
thị_xã 227173
Israel 227023
trải_nghiệm 226933
Linh 226597
kinh_phí 226572
Nguyên 226361
Mới_đây 226358
đáng_kể 226139
tín_dụng 225698
giám_đốc 225577
dậy 225427
5@@ 225338
chức 225238
cát 225084
Cần_Thơ 225038
27 224728
CP 224399
rửa 224121
sẵn 223957
phản_đối 223934
tính_năng 223925
đám 223852
lộ 223669
chấn_thương 223666
miệng 223546
Hồi_giáo 223390
mặt_hàng 223155
H 223107
Đ@@ 223071
yếu 223057
ô_nhiễm 223046
Vinh 222984
thế_kỷ 222236
đâm 222196
hoàn_cảnh 222088
lo_ngại 221913
mong 221789
z@@ 221689
tham_nhũng 221471
nhà_khoa_học 221386
tiền_đạo 221279
khảo_sát 221209
thẳng 221065
thời_tiết 220857
thay_vì 220747
thống_kê 220567
may 220479
nghi 220413
quyết_tâm 220327
công_nhận 220080
Văn_phòng 220044
độc_đáo 219798
phong_trào 219461
Vậy 219392
Phát_triển 219035
vì_thế 218952
thách_thức 218594
tập_thể 218500
ga 218275
đăng 218246
tiến_độ 218127
dự_báo 217997
Kim 217920
dân_cư 217852
fan 217848
tuyệt_vời 217752
cung 217611
ngoại 217224
hoà 217175
bao_nhiêu 217110
đàn 216984
2020 216965
Hoàng_@@ 216634
Th@@ 216352
túi 216005
văn_phòng 215819
35 215817
Quảng_Nam 215707
Bình 215593
bình_luận 215520
tươi 215315
Thứ 215300
dường_như 214951
thiệt_mạng 214741
cư_dân 214625
Ngoại_giao 214569
chứng_minh 214287
29 214036
Song 213928
U23 213755
quy_trình 213697
người_mẫu 213484
thẩm_quyền 213462
ý_tưởng 213422
Nguyễn_Thị_@@ 213395
thức_ăn 213390
a@@ 213219
rà_soát 213203
Cho 213158
45 213136
4@@ 213118
tận 212657
bồi_thường 212637
kỹ_năng 212541
Phương 212408
… 212381
Dũng 212326
Iraq 212309
mua_bán 211733
trúng 211660
làn 211621
lưới 211349
f@@ 211116
ngập 211036
xử_phạt 211028
lãnh_thổ 210679
khổng_lồ 210561
Long 210540
nấu 210388
xăng 210349
Samsung 210328
đỗ 210260
lưng 209932
an@@ 209925
U@@ 209809
nhà_sản_xuất 209653
sửa_đổi 209341
u@@ 209283
đội_ngũ 208693
en@@ 208644
Đồng_Nai 208617
trốn 208606
muối 208478
bột 208184
kỷ_lục 207957
vật 207939
Văn_hoá 207920
di_động 207878
Hồng 207588
trình 207460
c 207410
quen 207363
ôm 207093
tường 207032
mũi 206416
Tất_cả 206401
thép 206295
camera 206290
Cty 205995
Du_lịch 205725
cổng 205702
tiền_vệ 205658
truyền 205635
Số 205613
Thủ_đô 205568
một_vài 205362
kho 205346
nguồn_gốc 205330
độc_lập 205327
of 205313
chiếu 205276
công_suất 205262
Brazil 205141
80 204824
toàn_quốc 204806
mảnh 204069
Bắc_Kinh 203958
màu_sắc 203681
anh_em 203603
miễn_phí 203584
thơ 203526
công_dân 203497
er@@ 203432
D 203398
rủi_ro 203347
Campuchia 203343
hạ_tầng 203254
al@@ 203166
giải_phóng 203120
đốt 202652
liệu 202455
đồng_hồ 202374
chứng_nhận 202247
thoải_mái 202205
mm 202050
2007 201640
người_yêu 201311
tài 201108
mặt_bằng 201086
chia_tay 200952
Quảng_Ninh 200852
nhảy 200765
ven 200730
k 200675
phóng 200492
in@@ 200471
Nói 200468
toàn_diện 200386
Bình_Dương 200378
nhà_hàng 200122
liên_kết 200110
Hoàng 200010
M 199783
90 199484
quốc_phòng 199378
phần_lớn 199037
khác_biệt 199033
hại 198875
Dương 198821
tiếp_xúc 198656
độc 198275
sinh_sống 197821
II 197731
Riêng 197524
chỉ_tiêu 197518
Giao_thông 197514
chị_em 197291
sút 197256
trực_tuyến 197239
chuỗi 196797
đường_sắt 196743
hình_sự 196395
Hương 196387
W@@ 196337
xếp_hạng 196334
H. 196034
ngoại_giao 195805
th@@ 195684
Giải 195655
chuyển_nhượng 195104
quần_áo 194852
học_trò 194781
xương 194665
xét_xử 194628
chín 194567
não 194421
trình_độ 194355
sửa_chữa 194348
tâm_sự 194299
de 194291
đòi_hỏi 194133
ấm 194066
tuỳ 194050
mãi 193919
kỷ_luật 193904
Vì_thế 193853
dinh_dưỡng 193848
cập_nhật 193848
nhiễm 193526
Đã 193131
nguyên_liệu 193112
0 193007
ma 192897
đồng_đội 192872
nh@@ 192722
lúc_nào 192216
dọc 192155
tin_tưởng 191886
tiềm_năng 191675
chút 191652
ném 191640
smartphone 191429
Phạm_@@ 191158
nhận_thức 191125
trưa 190935
huấn_luyện 190894
di_tích 190716
Australia 190482
Hiệp_hội 190451
thơm 190410
công_chúng 190288
hồng 190254
bổ_nhiệm 190150
chỉ_trích 190109
chỉ_số 190040
lo@@ 190032
es 189704
Donald_Trump 189662
Mẹ 189599
tai 189522
uy_tín 189336
xả 189314
M.U 188816
dao 188788
32 188681
quan_sát 188644
MC 188385
nhiệt_độ 188341
Hoà 188295
Phát_biểu 188154
động_vật 188089
cơ_cấu 188017
cáo_buộc 187997
Quân_đội 187968
tham_quan 187501
on 187480
đam_mê 187321
treo 187315
en 187240
S 187053
khoa 187015
thời_kỳ 186751
thời_hạn 186586
thương 186547
kín 186390
khung 186305
bớt 186010
cuộc_chiến 186007
Tr@@ 185917
mua_sắm 185796
Nữ 185379
địa_chỉ 185377
Chưa 185302
ánh 185120
phi 184840
nhiệm_kỳ 184832
bí_mật 184585
nói_chuyện 184559
hàng_không 184554
Tính 184538
tự_động 184501
ruột 184375
Lực_lượng 184280
tranh_chấp 184253
khuyến_khích 184069
lô 184059
Đường 183778
ti@@ 183716
sắt 183649
nhé 183504
váy 183353
sau_này 183320
ăn_uống 183157
mái 182971
cách_mạng 182920
pháp_lý 182898
o_@@ 182723
khủng_hoảng 182629
liên_lạc 182558
thành_phần 182427
x 182425
t_@@ 182419
ngụ 182411
kính 182399
tôm 182365
tiêu_chí 182198
Cường 182138
Kinh_tế 182075
lưu_ý 181846
cải_cách 181840
sắc 181768
cố 181726
thanh 181667
kết_hôn 181606
bia 181281
kỳ_vọng 181214
bàn_giao 181093
sốc 181068
ngực 180877
định_hướng 180738
bếp 180726
Mọi 180558
thi_hành 180472
miếng 180402
ra_đời 180118
Y@@ 179969
Gần 179857
xuyên 179817
sốt 179646
Thắng 179497
Uỷ_viên 179486
khúc 179483
chim 179464
tr@@ 179430
VFF 179233
tổng_thống 179038
phỏng_vấn 178985
Nhóm 178898
BHXH 178779
chấm_dứt 178774
Canada 178378
tắt 178352
J@@ 178310
phòng_chống 178295
100% 178266
er 178029
tiêu 177994
thật_sự 177925
viện 177877
tố_cáo 177605
Hải_quân 177587
nhận_xét 177545
đoạt 177480
3@@ 177475
chuyển_đổi 177447
phủ 177337
ép 176973
nội 176958
nhất_định 176712
sở 176644
Washington 176580
Ronaldo 176572
ảo 176560
vẽ 176330
d 176210
yêu_thương 176205
Hình_ảnh 176061
gan 175854
ph@@ 175778
luật_sư 175774
vui_vẻ 175565
xe_tải 175264
trường_học 175238
kiến_trúc 174922
vết 174908
nói_chung 174873
nền_tảng 174762
Tâm 174759
nhà_lãnh_đạo 174697
sai_phạm 174268
Môi_trường 174035
khuyên 174014
Rất 173948
thả 173944
thông 173919
pin 173910
P 173860
chảy 173550
Cộng_hoà 173515
thủ 173408
xuân 173361
phó 173263
10@@ 173178
đồng_nghiệp 173146
vào_khoảng 173078
mơ 173044
Đại_hội 172907
Người_dân 172817
nguyên_tắc 172676
i_@@ 172645
thở 172638
giao_lưu 172628
triển_lãm 172615
Hơn 172607
ý 172540
kỹ 172452
đi_lại 172439
ngược 172335
CSGT 172301
nối 172224
2006 172214
công_chức 172030
khởi_tố 171975
trọng_tài 171919
hầm 171907
cơ 171880
phiếu 171770
ôtô 171755
trừng_phạt 171732
Kế_hoạch 171538
Gia_đình 171409
Bài 171112
thùng 171033
đậm 171017
hiệu_lực 171002
Thế_giới 170971
Lễ 170907
hôn_nhân 170770
hiếm 170758
thói_quen 170654
động_viên 170602
to@@ 170392
âm 170252
lưu_thông 170159
l 170036
công_cộng 170031
thế_này 169778
mét 169642
Công_Thương 169620
Nam_@@ 169612
An 169462
Quốc_tế 169444
400 169392
dẫn_đầu 169032
ký_kết 168813
đắt 168762
lãi 168570
tính_toán 168532
giấy_phép 168311
họp_báo 168072
pháo 167993
nhà_thầu 167594
đỉnh 167581
tiếc 167527
tự_hào 167523
vật_liệu 167361
lâu_dài 167168
T. 167047
vào_cuộc 167033
nhắn 166956
AFP 166950
C. 166906
Đài_Loan 166770
nghiêm_túc 166704
dự_thảo 166382
tiêu_cực 166325
K 166235
Chúng_ta 166233
nút 166059
hương 165957
Hà_Lan 165954
Ngọc 165638
tắm 165635
đại_gia 165610
Hệ_thống 165554
Khoảng 165176
mây 165052
trộm 165043
trà 164959
hài_lòng 164952
tải 164902
hộp 164802
Quang 164767
Real_Madrid 164760
lợi_thế 164677
đền 164673
vùng_biển 164644
chờ_đợi 164453
ia 164410
phạm 164381
góp 164346
N 164320
Thanh_tra 164312
Văn_@@ 164294
hợp 164212
dựng 164206
thuyết_phục 163984
Kim_@@ 163895
the 163868
tỷ_số 163666
lọt 163582
chỉ_huy 163557
tốt_đẹp 163458
thiên_nhiên 163456
L 163449
khí_hậu 163445
điện_ảnh 163342
hệ 163262
g 163159
w@@ 163150
một_chút 163115
Z@@ 163091
đám_cưới 163083
thiết_lập 163073
ống 162986
quyết_liệt 162650
36 162589
nhựa 162458
đấu_tranh 162364
liên_hệ 162360
vật_chất 162353
chế_tạo 162310
Đồng 162223
khen 162131
Barca 161926
Tùng 161811
X 161790
cảm_ơn 161645
phạm_vi 161630
chủ_trì 161513
ngọt 161470
biểu_hiện 161449
2@@ 161248
Vũ_@@ 161192
HĐND 161151
đa_dạng 161128
31 161037
Tuy 160908
ngư_dân 160828
_S@@ 160786
Xuân 160615
lít 160572
News 160541
Tiến 160534
Vũ 160152
E 160149
bật 159930
giấu 159869
ý_thức 159826
kể_cả 159822
bám 159742
Champions_League 159670
nhân_lực 159579
tập_luyện 159556
Liverpool 159547
có_vẻ 159258
bình_quân 159083
giây 159039
Phong 158819
thông_thường 158758
Điểm 158703
Man_City 158662
is@@ 158244
Real 158099
1,@@ 157868
đội_hình 157732
sự_thật 157646
hoàn_tất 157561
NATO 157509
cử_tri 157459
cột 157439
Châu 157429
trưởng_thành 157390
taxi 157324
trống 157278
Úc 157249
cử 157235
phụ_thuộc 157214
50% 157194
chiến_sĩ 157127
thuyền 156826
ngọn 156759
tàu_ngầm 156728
Al@@ 156727
Hưng 156714
kiện 156665
p 156659
ngắm 156634
TAND 156626
giấy_tờ 156598
xuất_phát 156583
Lần 156530
khâu 156486
or@@ 156220
can_thiệp 156183
xưa 156152
ưu_đãi 156069
vất_vả 156050
Thực_tế 155996
tại_sao 155976
bảo_hiểm 155970
nhà_báo 155915
nước_mắt 155685
Nhờ 155639
trôi 155597
khối_lượng 155523
mát 155451
xác_minh 155338
hôm_qua 155248
mâu_thuẫn 155198
bình 155173
cộng 155141
Y 155025
làm_sao 154908
ý_định 154867
nghi_ngờ 154851
nhẹ_nhàng 154827
Hãng 154768
suất 154729
Công_nghệ 154694
xin_lỗi 154640
trừ 154613
hằng 154526
mệt_mỏi 154503
tiệc 154423
định_cư 154207
bến 154045
show 153925
đồng_bào 153876
as@@ 153860
đánh_bại 153734
đạo_đức 153699
tạp_chí 153607
nhạc_sĩ 153602
ri@@ 153450
răng 153332
Đại_diện 153246
khai_mạc 153216
tết 153113
phụ_trách 152933
1.@@ 152864
ánh_sáng 152694
Obama 152673
vitamin 152647
es@@ 152407
tổn_thương 152369
dính 152106
tranh_cãi 152035
tuy 151980
MV 151915
khoảng_cách 151843
BV 151750
Dân 151496
bảo_tồn 151325
thuỷ_sản 151310
sắp_xếp 151294
Thành_uỷ 151247
giảm_giá 151221
gặp_gỡ 150978
giám_khảo 150934
Mai 150819
li@@ 150814
2000 150695
Xem 150647
quyền_lợi 150607
dâu 150535
Chúng 150506
năm_học 150502
Hà_@@ 150499
xung_đột 150499
biểu_tình 150435
y_@@ 150376
giày 150338
Đáng 150255
tuyển_sinh 150249
hưu 150213
Bước 150014
lính 149996
phiên_toà 149961
bướm 149855
Ph@@ 149700
chấm 149639
chứng_khoán 149634
đạo 149525
vỉa_hè 149522
co@@ 149507
Hoà_Bình 149448
kích_thước 149288
lan 149220
thưởng_thức 148998
cải_tạo 148765
hoàn_hảo 148740
top 148730
tức 148697
tách 148691
thái_độ 148663
Trang 148633
mốc 148475
ly 148467
đường_bộ 148403
gắn_bó 148380
chủ_quyền 148244
Dương_@@ 148171
than 148063
khẩn_cấp 147708
đóng_cửa 147705
al 147640
tận_dụng 147621
chặn 147530
ghi_bàn 147493
lần_lượt 147432
bất_thường 147383
hiệp 147323
Lan 147223
dày 147178
đáp 147104
Cái 147090
ngược_lại 147064
số_liệu 146981
khám_phá 146955
VTC 146908
nhiệt 146824
Paris 146817
đối_phương 146762
tôn_trọng 146746
CĐ 146405
tế_bào 146361
Lâm 146359
Chuyện 146335
động_lực 146285
quảng_bá 145991
Ngoại_trưởng 145835
Thông_tư 145754
2005 145733
xuất 145704
đa 145685
công_cụ 145483
Khánh_Hoà 145477
Trao_đổi 145405
tròn 145372
el@@ 145369
Tân_@@ 145292
lỗ 145246
hành 144992
trò_chơi 144944
nhiên_liệu 144917
bạc 144877
Video 144860
đuổi 144855
Dưới 144785
khủng 144701
j@@ 144670
lịch 144596
Putin 144567
Cần 144520
đề_cập 144495
Nghĩa 144487
MU 144391
biến_đổi 144390
buôn_bán 144373
vươn 144242
150 144182
quen_thuộc 144140
chức_vụ 144080
tên_tuổi 144036
hạn 144007
cực_kỳ 143998
đồng_bộ 143956
mực 143950
đất_đai 143936
di_sản 143842
Sao 143757
Barcelona 143559
dự_đoán 143400
loại_bỏ 143318
mất_tích 143275
Nhìn 143231
doanh_nhân 143157
s_@@ 143119
is 143007
tài_trợ 142914
nặng_nề 142871
1@@ 142800
chăn_nuôi 142750
sang_trọng 142738
Tổ_quốc 142587
đặc_trưng 142534
2.000 142427
tích_hợp 142362
Thuỷ 142313
Nghiên_cứu 142291
Nguyên_nhân 142055
.@@ 141944
săn 141922
chìm 141830
rắn 141580
Làm 141574
cân_bằng 141418
ro@@ 141386
Android 141286
đậu 141286
một_mình 141255
sai_lầm 141208
bông 141160
quyền_lực 141078
Messi 141006
Thương_mại 140892
cảm_nhận 140625
hạng_mục 140617
Tổng 140494
bán_kết 140390
dứt_điểm 140354
33 140305
đĩa 140218
định 140206
xứng_đáng 140150
ra@@ 140118
Tỉnh_uỷ 140013
quyến_rũ 139997
cỏ 139849
nghiêm 139730
tây 139712
rộng_rãi 139693
17@@ 139569
quê_hương 139561
Quảng_Ngãi 139492
hoá_chất 139480
tưởng 139258
sâu_sắc 139248
phát_sinh 139216
ngay_lập_tức 139211
giới_hạn 139117
biệt_thự 139089
củ 139071
xóm 139061
bạo_lực 138736
ngầm 138402
nhấn 138243
us 138199
tín_hiệu 138178
tượng 138111
Huy 138063
gương 138011
sạt_lở 137743
inch 137707
giường 137692
tin_đồn 137686
Đại_sứ 137539
trưng_bày 137510
Argentina 137484
la 137444
cờ 137424
phục_hồi 137414
New_York 137383
thần 137224
Giang 137212
xe_buýt 137139
tăng_giá 137035
tâm 137001
Bằng 136976
Kỳ 136947
heo 136889
Học_viện 136860
liên 136823
tiểu_học 136790
on@@ 136723
Thể_thao 136660
chú_trọng 136589
ong 136449
Toàn 136396
thuỷ_điện 136291
quan 136290
Kh@@ 136216
gi@@ 136084
tư_nhân 136065
2019 136054
10.000 136007
R 136003
hot 135952
theo_đuổi 135751
mở_cửa 135172
album 135136
tuân_thủ 135123
an_@@ 134836
_L@@ 134792
Ai 134630
trò 134591
London 134445
34 134423
VĐV 134416
nguồn_lực 134409
hư_hỏng 134365
0@@ 134250
đối_đầu 134248
đoàn_kết 134211
and 134209
Lao_động 134175
T&T 134125
hội_thảo 134067
thận 134010
bụi 133640
Đông_Nam_Á 133639
Phía 133555
động 133547
độc_giả 133347
Báo_cáo 133333
biểu_tượng 133273
trái_tim 133247
khuôn_khổ 133244
củng_cố 133169
ví_dụ 133157
] 133147
phân_phối 132987
trang_trí 132987
BOT 132951
ngày_nay 132848
kêu 132765
Đông_@@ 132761
làm_ăn 132600
mọc 132573
Hồi 132572
thi_thể 132553
ước_tính 132426
Liên_Xô 132230
đối_thoại 132213
H.@@ 132118
Re@@ 131974
gia_nhập 131973
600 131937
le@@ 131904
euro 131877
mỏng 131821
chạm 131812
phấn_đấu 131785
thiên_tai 131763
nghiệp_vụ 131669
cỡ 131632
thử_thách 131545
thích_hợp 131515
béo 131505
tan 131488
[ 131447
F 131370
dàn 131317
Toà_án 131308
Liên_minh 131192
người_bệnh 131128
Moscow 131063
ngạc_nhiên 131011
Trương_@@ 130911
Phải 130838
Ngọc_@@ 130788
sáng_tác 130708
quần 130659
Khoa_học 130649
cm 130640
bơi 130628
nhan_sắc 130497
sơn 130435
am@@ 130299
V 130270
Quận 130226
nụ 130198
phương_thức 130187
2004 130127
HAGL 130031
đông_đảo 129933
10% 129886
đeo 129690
Cup 129658
tối_thiểu 129583
trung 129521
mừng 129482
mềm 129399
Lãnh_đạo 129351
nội_địa 129315
15@@ 129285
kem 129272
chưa_thể 129252
vững 129143
b 129106
Minh_@@ 129103
phạm_tội 129075
Phúc 129043
tuyệt_đối 129000
Bình_Định 128939
bác 128901
cổ_đông 128884
qua_đời 128720
Tổng_công_ty 128606
niêm_yết 128588
Quảng_Bình 128496
cứu_hộ 128439
G 128329
đề_án 128322
12@@ 128208
Phan_@@ 128173
Mexico 128169
lực 128089
tiêu_diệt 128063
công_viên 128054
ng 128015
tiêm 127973
trang_web 127913
siêu_thị 127818
n_@@ 127817
Ai_Cập 127797
do@@ 127779
Ý 127771
mổ 127682
thất_vọng 127662
kịch_bản 127589
so_sánh 127559
Thường_trực 127451
Mourinho 127438
sợi 127401
37 127316
ad@@ 127204
0,@@ 127184
Dự_kiến 127180
Chi_cục 127138
Mar@@ 127054
Cổ_phần 127051
xoay 127035
tuần_tra 127005
khớp 127004
Hơn_nữa 126865
xoá 126801
Mùa 126753
Premier_League 126713
nhà_văn 126674
chiếm_đoạt 126625
minh_bạch 126605
muộn 126523
lắp_đặt 126386
bán_lẻ 126353
gợi_cảm 126265
va_chạm 126238
Thái_Bình_Dương 126228
sửa 126088
trần 126059
trò_chuyện 126049
tính_chất 126028
Nước 125953
bát 125876
Tập 125773
Microsoft 125751
Thanh_@@ 125743
Quân 125623
lợi_dụng 125425
38 125382
qu@@ 125314
mảng 125262
Đại_@@ 125154
_B@@ 125136
mộ 125041
trực_thuộc 124948
GS 124904
Cầu 124886
sản_lượng 124823
kiêm 124784
Thêm 124780
chiến 124707
mỡ 124691
Tin 124602
hài 124593
tư_tưởng 124420
kích_thích 124378
1,5 124277
ấp 124276
khẩn_trương 124228
Hiếu 124189
vùng_đất 124127
Kể 124104
Nhà_máy 124090
từ_thiện 124079
canh 124023
góp_mặt 123906
Thái_Bình 123890
16@@ 123888
động_thái 123878
tại_chỗ 123854
nói_riêng 123827
ngôn_ngữ 123731
Lý_@@ 123711
Liên_quan 123642
bắt_buộc 123562
thu_hoạch 123449
dâng 123425
Thảo 123375
Nông_nghiệp 123302
phát_sóng 123228
Thu 123207
hành_tinh 123198
đẻ 123138
bốc 123125
âm_thanh 123080
Thấy 123016
thừa 123010
20% 123009
khuôn_mặt 122995
Xuân_@@ 122978
tràn 122949
quá_khứ 122890
Đi 122824
hứa 122699
cụm 122669
Hàn 122594
kết 122550
hầu_như 122548
Gia_Lai 122498
đợi 122493
xác 122433
mặt_trời 122356
thức 122326
Có_lẽ 122304
mầm_non 122251
đường_phố 122237
phong_độ 122181
lò 122176
vải 122122
hứa_hẹn 122121
Hải_quan 121870
dông 121703
Phần 121684
đại 121678
Honda 121673
website 121659
chuyên_ngành 121572
Le@@ 121532
khơi 121432
áp 121390
_ 121365
thực 121362
hải_quân 121281
Ngô_@@ 121191
xe_tăng 121131
khói 121112
toả 121040
Đào_tạo 121009
thuốc_lá 120913
châu 120735
Nhân 120660
virus 120622
re@@ 120511
Vân 120461
cá_tính 120444
bọ 120382
Myanmar 120325
giam 120307
tốn 120216
phi_công 120175
Gi@@ 120099
cam 120042
lọc 119996
el 119983
Đà_Lạt 119959
cứng 119841
r 119829
gọn 119818
TV 119816
Tây_Nguyên 119796
giáp 119763
Xe 119701
văn 119635
trâu 119601
Đừng 119519
lừa_đảo 119438
thực_thi 119397
cân_nhắc 119370
Hải_Dương 119042
Văn 118953
Nhân_dân 118910
tông 118862
do_đó 118859
_M@@ 118813
tương_đối 118783
đối_phó 118767
mỏ 118698
hẹn 118690
con_cái 118685
môi 118628
30% 118503
trình_bày 118480
Thường_vụ 118466
chuyển_giao 118450
Thăng_Long 118354
tham_khảo 118314
ghép 118202
u_@@ 118106
Lào_Cai 118033
CĐV 117940
ana 117922
phe 117790
thông_điệp 117782
5.000 117720
khó_chịu 117705
ô 117588
SEA_Games 117464
nhãn 117434
sập 117397
cô_giáo 117389
khiếu_nại 117279
Quảng_Trị 117265
gánh 117080
55 117014
Mình 117013
BTC 116937
cắm 116897
THCS 116883
đồng_minh 116877
co 116628
tiêu_biểu 116541
ngăn 116499
Tổng_giám_đốc 116479
xe_đạp 116301
đài 116282
chứng 116204
14@@ 116159
biên_bản 116133
kh@@ 116088
Đêm 115948
Nha_Trang 115915
diễn_đàn 115888
tổng_thể 115874
Quốc 115831
48 115761
Ho@@ 115725
bất_chấp 115715
Trần_Văn_@@ 115688
trái_cây 115653
dẫn_dắt 115606
thủ_môn 115548
An_ninh 115383
Do_vậy 115344
loại_hình 115311
nướng 115300
chanh 115295
3.000 115294
Ar@@ 115255
Nguyễn_Xuân_Phúc 115252
nhà_nghiên_cứu 115228
Rồi 115066
thẩm_định 115057
il@@ 114945
chai 114918
ho@@ 114907
lập_tức 114898
khoẻ_mạnh 114765
phân_biệt 114692
đuôi 114580
tư_cách 114516
bằng_chứng 114513
khởi_nghiệp 114500
tài_nguyên 114294
trạng_thái 114167
cắt_giảm 114080
phủ_nhận 114011
dừa 113901
ngựa 113896
hỏng 113886
trại 113869
chế 113626
che 113610
đa_số 113588
nội_bộ 113580
khoảnh_khắc 113563
chấp_hành 113551
Cuba 113540
viễn_thông 113532
Bộ_Chính_trị 113500
ac@@ 113470
tour 113454
ứng_viên 113399
Cà_Mau 113394
ch 113361
giật 113327
Hy_Lạp 113278
chốt 113272
Ví_dụ 113170
Xã 113168
ao 113163
AP 113148
cao_tốc 113103
kinh 113067
HS 112859
Hằng 112832
Khánh 112828
tiên_tiến 112799
đảng_viên 112743
trộn 112709
GD-ĐT 112700
O 112677
khởi_động 112628
ly_hôn 112604
Đầu 112513
thu_thập 112455
Bỉ 112436
nhạy_cảm 112420
cánh_cứng 112323
đại_lý 112246
hội_nhập 112156
mạng_lưới 112152
di_dời 112146
nấm 112122
Trước_đây 112060
800 112049
Ba_Lan 112038
không_quân 112025
thợ 112023
as 111964
tỉ_lệ 111919
tổng_cộng 111790
Nam_Định 111767
giảng_dạy 111727
Hiền 111670
tướng 111602
Bồ_Đào_Nha 111578
đề_tài 111531
ước 111503
phun 111457
nhân_sự 111437
bẩn 111400
Mai_@@ 111298
thải 111288
đồng_tiền 111225
khuyến_cáo 111222
42 111195
bài_học 111193
1/@@ 111188
vi_khuẩn 111085
Tài_nguyên 111058
Sông 111023
năng_suất 110980
thiết_thực 110970
bọn 110934
công_bằng 110878
ngại 110874
Trận 110872
sân_nhà 110801
đôi_khi 110761
mượn 110739
tập_trận 110618
hoa_hậu 110605
Truyền_thông 110575
tố 110482
BHYT 110396
Ma@@ 110376
hắn 110238
@@ 110232
Chia_sẻ 110200
nghĩa_vụ 110053
xúc_động 110037
đành 109991
at@@ 109969
lộ_trình 109924
nghề_nghiệp 109879
cơ_sở_hạ_tầng 109876
hợp_pháp 109872
lứa 109872
phổi 109820
Á. 109803
Bản 109706
HĐQT 109651
sáu 109567
xét_nghiệm 109346
01 109234
Q. 109225
căn_bệnh 109216
bỏ_qua 109213
tu@@ 109191
khổ 109116
công_văn 109100
trọng_lượng 109048
quần_đảo 109035
học_viên 108901
Nhiệt_độ 108827
Thái_Nguyên 108804
toà_án 108704
di@@ 108692
tay_vợt 108686
ar 108584
tương_ứng 108531
Bùi_@@ 108488
bàn_tay 108402
Co@@ 108398
ngâm 108373
thú 108336
truy_cập 108334
khẩu 108328
triệu_chứng 108248
nhập_viện 108247
tháp 108229
An_@@ 108208
thân_thiện 108087
mai 108082
đấu_giá 107988
65 107903
m_@@ 107886
tiến_bộ 107797
Vấn_đề 107738
2003 107697
hàng_xóm 107675
thí_điểm 107593
lu@@ 107541
đồng_hành 107413
U19 107332
giấc 107275
39 107272
Khu_vực 107215
An@@ 107205
trung_ương 106933
man 106916
bạn_đọc 106895
Cứ 106846
Đặng_@@ 106800
mạch 106773
ốc 106722
Trần 106692
thờ 106664
13@@ 106645
internet 106626
xăng_dầu 106579
ngờ 106555
đáy 106544
chuối 106530
đỡ 106457
phong_phú 106451
bị_can 106439
Cuối 106349
xử 106323
Trường_Sa 106172
Lê_Văn_@@ 106172
so@@ 106122
lông 106104
APEC 106019
lưu 105948
Tổng_hợp 105939
phòng_không 105922
đột_phá 105897
Huỳnh_@@ 105832
Cuối_cùng 105827
thực_tiễn 105817
Đỗ_@@ 105811
biên_chế 105797
vui_chơi 105788
ma@@ 105716
Olympic 105680
bí_ẩn 105655
Bắc_Ninh 105578
Nên 105536
non 105526
chặng 105469
câu_lạc_bộ 105446
Hôm 105405
Phụ_nữ 105264
chừng 105131
đẳng_cấp 105065
chinh_phục 105022
hôn 104979
Đúng 104963
75 104800
hiệu 104788
anh_chàng 104748
hậu 104662
Lễ_hội 104636
phiến_quân 104531
đường_dây 104501
Di@@ 104494
chi_trả 104485
Thái_@@ 104345
tạm_thời 104315
bỏ_phiếu 104189
thi_đua 104181
thẩm_mỹ 104115
Tổ 104101
diễn_xuất 104032
Không_quân 103954
Lý 103950
BĐS 103946
tiêu_hoá 103932
Nh@@ 103845
Long_An 103806
chủ_nhân 103792
chứng_tỏ 103730
thuê_bao 103653
Xin 103622
vướng_mắc 103608
showbiz 103560
46 103556
hỗn_hợp 103489
trọng_điểm 103462
thích_thú 103421
Dân_chủ 103395
it@@ 103376
cẩn_thận 103371
đầm 103350
chữa_cháy 103258
tiết_mục 103237
bơm 103214
Toyota 103212
Đề_án 103097
đánh_dấu 103083
Tú 103049
chuột 103020
CNTT 103012
dáng 102923
1990 102920
2-3 102828
binh_sĩ 102808
điển_hình 102767
Ng@@ 102707
2,@@ 102681
Bắc_@@ 102631
hậu_vệ 102630
dấu 102600
nghiện 102572
Sơn_La 102572
hiến 102560
Nhà_Trắng 102518
giàu_có 102502
700 102481
Viettel 102380
đình_chỉ 102373
đối_lập 102357
nở 102319
dự_định 102312
et@@ 102289
ơi 102279
nữ_sinh 102250
gỡ 102161
chấp_thuận 102070
sưu_tập 102030
Tư_pháp 101990
Tuy_vậy 101962
công_nghệ_cao 101904
sen 101891
5% 101880
giáo_sư 101685
Đài 101536
đối_diện 101491
GDP 101429
vở 101415
ứng_xử 101388
bảo_quản 101309
hẹn_hò 101245
gần_gũi 101196
BS 101142
ta@@ 101079
Hồng_@@ 101073
Công 101052
đo 101035
rạng 101019
Bình_Thuận 101012
trị 100998
Park 100968
văn_minh 100900
cải_tiến 100898
bảo_mật 100833
us@@ 100781
bộ_máy 100760
mẹ_con 100750
phòng_thủ 100676
Xã_hội 100666
tập_huấn 100634
lãng_mạn 100611
biến_động 100608
Quý 100600
gạch 100599
nhất_trí 100526
suối 100421
tiết 100380
múa 100368
chúc_mừng 100106
người_lớn 100085
Nội_vụ 100015
gã 100002
leo 99971
vết_thương 99947
yên_tâm 99921
huỷ 99912
Lộc 99912
Lưu_@@ 99784
ab@@ 99768
Chi 99665
Quỳnh 99577
ước_mơ 99542
lãng_phí 99541
Car@@ 99492
ngón 99459
phát_động 99449
id@@ 99388
không_kích 99332
ẩm_thực 99324
hy_sinh 99210
Tổng_Giám_đốc 99162
hòn 99156
viên_chức 99021
đau_đớn 98984
chém 98852
Ninh_Bình 98836
Thật 98823
dạ_dày 98792
TP.HCM. 98755
Hiệp 98730
nhầm 98727
Vũng_Tàu 98692
giá_cả 98673
mặt_đất 98618
ine 98608
Afghanistan 98517
tình_báo 98431
Hạ_Long 98401
chi_nhánh 98394
liên_minh 98380
ensis 98301
120 98203
quản_trị 98155
chi_tiêu 98097
nồi 98079
quốc_lộ 97999
43 97742
lý_tưởng 97742
ap@@ 97711
cúp 97686
dốc 97670
trẻ_trung 97665
son 97654
Cao_@@ 97583
ruộng 97571
cấu_trúc 97542
HIV 97529
Phú_Thọ 97502
dập 97488
nhì 97460
Tàu 97423
Phật 97406
học_bổng 97404
dấu_ấn 97369
khắp_nơi 97366
nghỉ_ngơi 97326
dân_sự 97240
Tài 97172
al-@@ 97166
đ@@ 97148
gãy 97131
yên 97129
nam_giới 97119
đói 97118
Se@@ 97023
Thuỵ_Điển 96940
kịch 96857
Trường_hợp 96832
anh_hùng 96787
phong 96661
Đại 96575
Trả_lời 96535
thu_giữ 96510
bình_chọn 96486
áo_dài 96467
bất_cập 96451
khoẻ 96436
vệ_tinh 96343
.. 96296
nguyện_vọng 96270
Chủ_nhiệm 96258
nhắc_nhở 96249
châu_Phi 96201
bản_quyền 96197
2.@@ 96182
vận 96173
um 96156
giảng_viên 96142
dân_gian 96138
trực_thăng 96107
Vàng 96106
Liên_đoàn 96045
mèo 96032
Italy 96023
thân_thiết 96002
căng 95977
Sh@@ 95967
Giờ 95905
ứng_phó 95819
Hầu_hết 95799
sức_ép 95778
1999 95749
ag@@ 95693
v 95618
Lương 95588
Trung_@@ 95585
hài_hước 95545
Tiếp 95486
tuyển_dụng 95435
quãng 95381
ngõ 95367
Liên 95309
III 95289
le 95249
ic@@ 95204
đ 95195
ớt 95191
danh_mục 95176
ngọt_ngào 95162
một_nửa 95135
cố_tình 95096
Vận_tải 95095
tỷ_phú 95056
tin_tức 95050
2002 94983
bản_đồ 94956
Q@@ 94935
trụ 94890
Tối 94874
nhịp 94807
47 94752
người_nhà 94737
100.000 94731
An_Giang 94635
41 94630
Phú_Yên 94602
Nếu_như 94567
to_lớn 94546
Bo@@ 94482
tuyệt 94469
đà 94355
tiểu 94299
U 94281
dãy 94265
hiện_diện 94260
Vương_@@ 94237
ùn_tắc 94207
HCV 94197
huyền_thoại 94193
say 94156
na 94134
Mo@@ 94126
lạc 94112
44 94109
Bé 94086
dân_chủ 94034
z 94022
im@@ 94005
đồn 93876
hải_sản 93831
động_đất 93795
Plus 93728
49 93698
Bình_Nhưỡng 93626
vắng 93525
đô_la 93445
Thiên_@@ 93445
Trung_Đông 93444
nước_thải 93372
PCCC 93366
trinh_sát 93325
dán 93213
đón_nhận 93191
nhắm 93168
lành_mạnh 93147
64 93089
63 93037
Dung 93022
xe_khách 92985
cây_xanh 92902
học_hỏi 92876
trượt 92831
thảm_hoạ 92824
Lâm_Đồng 92821
Đảng_uỷ 92768
Thực_hiện 92761
tinh_tế 92738
lưu_trữ 92693
huy_chương 92668
tiệm 92559
phá_huỷ 92556
phổ_thông 92498
quy_chế 92484
Trần_Thị_@@ 92449
tư_duy 92419
khách_quan 92408
trọng_tâm 92386
Lo@@ 92367
Liên_hợp_quốc 92353
thẳng_thắn 92275
xuất_bản 92266
hữu_nghị 92227
Sinh 92153
từ_bỏ 92112
2001 92110
Nhận 92056
thực_chất 92017
mụn 91989
at 91983
trùm 91934
sinh_nhật 91898
trang_điểm 91864
ngoại_hình 91863
Á_hậu 91856
Sa@@ 91775
Top 91762
Công_Phượng 91760
Mức 91722
phần_nào 91686
chỉ_định 91621
kim 91487
Thịnh 91393
51 91392
vô_tình 91384
os@@ 91366
ông_bà 91324
khống_chế 91294
Tiếng 91290
hiểu_biết 91136
Bác_sĩ 91121
làm_đẹp 91051
rối_loạn 91030
su@@ 91029
huấn_luyện_viên 90996
ne@@ 90979
sơ_thẩm 90924
duyên 90881
vị_thế 90833
đăng_quang 90832
lừa 90824
250 90803
nhìn_nhận 90796
mật 90779
Bác 90724
nông_sản 90693
thập_niên 90675
nghỉ_dưỡng 90671
Giáo_sư 90671
Bar@@ 90629
ạ 90596
linh_hoạt 90580
nếu_như 90551
bọc 90488
tham_mưu 90449
chiến_thuật 90433
miễn 90347
sa 90313
te@@ 90305
lậu 90260
đồng_nghĩa 90205
tính_cách 90191
song_phương 90092
Hạnh 90091
xôn_xao 90089
N. 90037
Doanh_nghiệp 90036
dữ_dội 89841
tranh_thủ 89785
Cậu 89770
chất_thải 89703
tre 89691
Su@@ 89662
vận_động_viên 89608
chiến_trường 89576
luật_pháp 89575
20.000 89558
54 89551
Nghe 89532
se@@ 89475
sôi_động 89445
trang_thiết_bị 89435
Italia 89404
Đại_tá 89381
Hà_Đông 89353
52 89285
km/h 89218
Lê_Thị_@@ 89185
lạm_phát 89137
P. 89125
sổ 89117
Twitter 89040
nội_thất 88971
Bắc_Giang 88921
U. 88918
cống_hiến 88883
đồi 88865
thổi 88788
Lâm_@@ 88736
chiến_binh 88699
năng_động 88626
ina 88625
eo 88624
văn_học 88583
dự_phòng 88575
chào 88521
VTV 88508
đoán 88491
cục 88374
bồi_dưỡng 88365
lẽ 88346
chênh_lệch 88322
xe_hơi 88308
quá_tải 88275
gia_vị 88270
đối_ngoại 88269
can 88268
phòng_ngự 88259
Vi@@ 88191
thầy_trò 88173
Chủ 88081
Kiểm_tra 88077
Windows 88070
tức_là 88034
tím 87972
Hà_Giang 87914
am 87855
quốc 87810
bấm 87796
đền_bù 87684
cổ_vũ 87670
Qu@@ 87625
Bây_giờ 87607
nắng_nóng 87589
Quang_@@ 87505
hiện_hành 87503
diệt 87465
tổ_hợp 87457
Hiệu_trưởng 87443
Pakistan 87434
công_lập 87419
công_nghệ_thông_tin 87382
Khoa 87371
trước_mắt 87326
m3 87307
70% 87305
Lịch_sử 87242
FIFA 87203
k_@@ 87194
tính_mạng 87157
Thời_điểm 87122
dài_hạn 87103
trục 87078
La_@@ 87058
bắt_tay 86976
Phú 86965
kiên_quyết 86954
khởi_công 86913
tiến_sĩ 86811
Ảnh_@@ 86777
trân_trọng 86774
lắp 86742
bác_sỹ 86730
thường_trực 86719
doanh_số 86648
máy_móc 86620
thắc_mắc 86619
Tờ 86601
làm_nên 86591
nghị_quyết 86568
72 86537
iPad 86536
Tổng_Bí_thư 86401
Nguyễn 86364
rạp 86333
To@@ 86325
Quốc_lộ 86263
đứt 86245
rèn_luyện 86101
bán_đảo 86066
chè 86060
Áo 85975
56 85953
trọ 85949
Luật_sư 85931
bu@@ 85867
tin_cậy 85821
So 85820
Chánh 85784
giao_tiếp 85757
Bảo_tàng 85752
Liên_bang 85747
thắt 85731
trang_trại 85722
thần_kinh 85715
mo@@ 85701
vương 85622
Hải_@@ 85606
giữ_gìn 85577
.... 85511
hoá_đơn 85497
rét 85430
vui_mừng 85370
cách_thức 85280
L. 85207
online 85097
Mặt_trận 85030
cung_ứng 85021
cước 85003
em@@ 84984
chúc 84981
Việt_@@ 84968
T.@@ 84931
Hôm_nay 84915
giờ_đây 84891
Công_@@ 84891
vững_chắc 84864
dịch_bệnh 84824
ak@@ 84807
tỏi 84726
Võ_@@ 84687
ứng_cử_viên 84670
hội_đồng 84657
đàn_bà 84593
ẩm 84556
Chỉ_đạo 84536
dạo 84470
NN 84450
khôi_phục 84428
chẩn_đoán 84418
à 84411
Triển_lãm 84349
kỹ_sư 84253
Hiệp_định 84233
cảm_hứng 84196
Đồng_Tháp 84183
điện_thoại_di_động 84143
quản_lý_nhà_nước 84138
thập_kỷ 84117
tàu_sân_bay 84095
HĐXX 84075
ir@@ 84058
rực_rỡ 84002
LHQ 83915
30.000 83890
Trạm 83866
thắng_lợi 83840
Bị 83835
sân_chơi 83793
Công_tác 83777
A. 83721
Kiên_Giang 83707
bê_tông 83703
cua 83686
chip 83680
lạm_dụng 83628
chất_liệu 83604
giám_định 83572
đường_cao_tốc 83569
Yên_Bái 83562
email 83522
sôi 83484
lý_giải 83478
Cuộc_sống 83420
MT 83401
voi 83232
ang 83166
nhí 83158
Đắk_Lắk 83156
NHNN 83141
Tây_@@ 83074
CN 83030
Milan 83018
sợ_hãi 82984
dưỡng 82965
Nhà_hát 82896
ng_@@ 82892
18@@ 82883
4.000 82873
nhiệt_tình 82868
thân_hình 82819
đòn 82757
nát 82724
triệt_để 82715
CEO 82667
đặc_thù 82615
đằng 82614
Tiến_sĩ 82588
khăn 82524
xăm 82502
Thị_@@ 82450
lắng_nghe 82434
V-League 82420
Tất_nhiên 82399
hang 82396
Ro@@ 82375
De@@ 82318
tiến_trình 82303
_C@@ 82295
Uber 82273
quan_niệm 82200
phanh 82117
Phim 82080
TT 82077
So@@ 82064
Thuận 82061
phẩm 82039
Hậu 82022
Câu_chuyện 82016
Mặt_khác 82008
khuyết_tật 81967
Ne@@ 81933
Vịnh 81916
Long_@@ 81897
cao_điểm 81851
Galaxy 81836
Toà 81835
Phạm_Văn_@@ 81831
Hay 81801
Bản_thân 81779
Dân_số 81771
lớp_học 81674
kế 81668
hệ_điều_hành 81641
lý 81596
2,5 81592
hổ 81463
ol@@ 81442
vòng_loại 81412
bi@@ 81389
hàm_lượng 81335
thực_trạng 81319
Đa_khoa 81309
Am@@ 81295
Đinh_@@ 81248
Cầu_Giấy 81196
20@@ 81141
te 81099
đỉnh_cao 81097
rác_thải 81083
giải_cứu 81056
dồn 80998
Tokyo 80997
thành_tựu 80949
40% 80945
đánh_bắt 80844
kim_loại 80841
Nokia 80832
đồng_tình 80828
TN 80750
ngộ_độc 80739
Đảng_bộ 80733
đột_ngột 80681
gia 80657
80% 80630
Cây 80598
Công_nghiệp 80592
container 80583
tôn 80504
CSĐT 80487
sát_hại 80400
Đại_sứ_quán 80362
tôn_giáo 80358
sạc 80340
lỡ 80338
53 80301
Quả 80280
trọn 80194
số_phận 80162
Nội_dung 80109
vịnh 80030
đầu_mối 80013
lát 79972
trích 79947
62 79947
tiền_mặt 79944
nóng_bỏng 79929
chất_vấn 79902
Tuấn_Anh 79894
Tân 79884
Li@@ 79861
đối 79841
Dùng 79841
f 79823
nếp 79803
BKS 79739
chẳng_hạn 79733
Câu 79707
bảy 79648
hành_lang 79644
tôn_vinh 79641
truy_tố 79608
nước_sạch 79605
nâu 79587
vạn 79534
Trấn_Thành 79531
02 79525
Hoàng_Anh 79524
50.000 79504
John_@@ 79465
Hoàn_Kiếm 79460
cực_đoan 79434
ul@@ 79391
đặc_điểm 79375
Tiền_Giang 79374
bận_rộn 79373
mê 79367
Quy_hoạch 79317
băn_khoăn 79266
thời_đại 79253
ổ 79251
Sang 79233
thực_hành 79203
Tương_tự 79176
Tư 79158
3.@@ 79151
trung_vệ 79141
ed@@ 79130
sinh_học 79130
Lý_do 79119
loa 79057
Thương 79035
Hội_An 78972
dao_động 78931
gục 78909
Bình_@@ 78896
Chung 78880
giảm_thiểu 78800
binh 78776
đấu_thầu 78704
trái_phiếu 78678
nhà_cửa 78673
Me@@ 78672
tác_chiến 78662
có_khi 78622
xâm_nhập 78613
sh@@ 78576
M. 78516
tiền_lương 78473
Châu_Âu 78462
mật_độ 78449
huyết_áp 78444
cản_trở 78393
Muốn 78345
vây 78277
58 78272
xuống_cấp 78267
dự_trữ 78239
quy 78230
In@@ 78218
thằng 78211
Loại 78185
cô_dâu 78169
Nơi 78083
Đạt 78068
Hong_Kong 78036
tổng_kết 78034
lùi 77868
đồ_ăn 77832
đề_cử 77823
cao_su 77820
trao_tặng 77802
lấp 77781
2% 77764
vướng 77763
học_phí 77689
AFF 77628
_H@@ 77601
độc_hại 77592
tình_nguyện 77578
1995 77576
Quốc_@@ 77564
ho 77512
Tỉnh 77501
cân_đối 77467
Sẽ 77410
Trịnh_@@ 77406
ter@@ 77379
cửa_khẩu 77356
10/@@ 77336
di_cư 77304
khéo_léo 77294
nổi_dậy 77285
1% 77228
FPT 77222
Ford 77217
thận_trọng 77212
chiêu 77210
Trà 77191
vượt_trội 77184
Clip 77170
90% 77136
ám_ảnh 77113
chả 77028
bù 77013
3% 77004
Phương_@@ 76951
sáng_kiến 76896
cành 76884
xuất_xứ 76879
California 76849
hải_quan 76834
VOV 76791
Lạng_Sơn 76756
Ko@@ 76712
phòng_ngừa 76701
Tottenham 76676
dọn 76657
vịt 76640
Vừa 76601
hương_vị 76595
mục 76581
ngăn_ngừa 76567
Tại_sao 76564
Hưng_Yên 76541
tham_vọng 76537
tủ 76534
bởi_vì 76512
Quỹ 76506
giá_thành 76496
Du@@ 76488
cống 76408
sáng_lập 76407
sa@@ 76395
si@@ 76387
ngoại_tệ 76366
vi@@ 76346
girl 76289
Mà 76261
Đất 76258
khởi_đầu 76258
Neymar 76233
ni@@ 76217
đựng 76147
3,@@ 76129
Hu@@ 76125
d_@@ 76096
nghiêng 76075
va 76067
Quá_trình 76056
Lương_@@ 76038
nhắn_tin 76035
1998 76029
T.Ư 76008
bản_lĩnh 76002
Bảo_vệ 75996
phơi 75984
mỹ_phẩm 75967
4.@@ 75954
cúm 75910
Vụ_việc 75900
et 75883
hồi_phục 75847
en_@@ 75836
thăm_dò 75702
Bức 75678
Gia_@@ 75607
không_những 75604
ghé 75546
giải_toả 75493
Loan 75482
im_lặng 75407
Po@@ 75397
Juventus 75345
1-2 75306
bác_bỏ 75301
khu_phố 75270
ki@@ 75242
suy_giảm 75230
Hoa_@@ 75198
ngưỡng 75198
Dự_báo 75163
Ngôi 75156
67 75148
tệ 75128
nhánh 75105
Nhi 75096
tháo_gỡ 75056
liều 75052
bo@@ 75050
Thuỵ_Sĩ 75049
Euro 75047
rủ 75003
Thư 74999
Bảo 74991
Ban_đầu 74982
cắn 74951
cất 74925
VNPT 74918
móng 74901
Diễn_đàn 74862
Giới 74812
đống 74801
trộm_cắp 74770
Thanh_niên 74680
5/@@ 74667
chi@@ 74625
radar 74621
Hội_thảo 74579
ci@@ 74561
Giải_thưởng 74428
1997 74411
Lu@@ 74392
đình 74387
đau_đầu 74334
km² 74332
đặc_sản 74317
cửa_sổ 74234
_G@@ 74176
Q 74131
Mẫu 74129
la@@ 74079
Lời 73984
mưa_rào 73980
phản_hồi 73977
Chính_quyền 73931
Quỷ 73927
tỉ_số 73916
vũ_trụ 73913
kinh_hoàng 73901
om@@ 73825
thị_phần 73784
Tới 73778
chuyền 73728
chức_danh 73665
bưởi 73654
rao 73642
cay 73641
Vĩnh_@@ 73616
Venezuela 73555
cố_định 73550
sáp_nhập 73448
chủ_sở_hữu 73432
danh_tiếng 73386
gói_thầu 73380
kỳ_lạ 73311
robot 73307
Cặp 73265
1992 73249
tranh_luận 73243
thượng_đỉnh 73195
se 73193
ter 73183
tựa 73171
kép 73158
Nam_Phi 73154
lạc_quan 73141
57 73135
trợ_giúp 73070
chân_thành 73038
nhân_tạo 73033
khoan 73025
Thanh_Niên 73001
tàu_chiến 72991
Vĩnh_Phúc 72980
PC 72951
men 72949
facebook 72932
dụng_cụ 72925
thương_vụ 72893
chôn 72885
bước_đi 72873
Đống_Đa 72852
chê 72718
Kiên 72701
1993 72693
giải_ngân 72679
cúng 72651
Bắc_Bộ 72617
nghi_vấn 72548
mặn 72512
Phú_Quốc 72510
tứ_kết 72504
de@@ 72503
er_@@ 72500
đắp 72494
chậu 72451
xưởng 72446
NSƯT 72423
mồi 72340
ton 72337
cao_đẳng 72323
Kỹ_thuật 72303
No@@ 72268
đồ_chơi 72251
cảm 72246
truyện 72244
hạ_cánh 72202
tranh_cử 72179
Lê 72176
85 72130
Hồng_Kông 72128
tiện_ích 72122
đình_đám 72074
Mi@@ 72024
phân_công 71999
vội 71977
đặt_hàng 71906
Thị_trường 71900
68 71895
1994 71876
ay@@ 71867
bùng_nổ 71848
gay_gắt 71837
trí_tuệ 71836
bó 71805
1996 71796
đảm_nhận 71776
Vợ 71771
khen_ngợi 71726
Hà_Nam 71723
200.000 71723
7% 71717
đồng_loạt 71715
bình_tĩnh 71686
lân_cận 71654
hiển_thị 71643
ồn_ào 71639
nhập_cư 71614
Chẳng_hạn 71588
Dịch_vụ 71572
hào_hứng 71538
tự_nguyện 71495
đích 71478
xúc_tiến 71463
Hoàng_Sa 71449
ngày_một 71421
chuyển_biến 71311
tiền_bạc 71299
6/@@ 71286
Quyền 71251
báo_động 71225
vóc_dáng 71197
thái 71176
lương_thực 71118
thầy_cô 71114
nắm_bắt 71109
El@@ 71108
Ngọc_Trinh 71071
Tây_Bắc 71058
MTTQ 71053
đặc_sắc 71043
Bảo_@@ 71036
500.000 71027
Tiền 71023
no@@ 70981
Par@@ 70977
HTX 70972
SLNA 70966
66 70958
sở_thích 70941
em_gái 70927
D. 70884
đê 70883
FC 70880
mong_đợi 70860
Mục_tiêu 70855
un@@ 70848
bề_mặt 70823
Tình_trạng 70801
3D 70799
ing 70796
thu_mua 70783
Buổi 70749
bút 70724
luồng 70713
9.@@ 70703
ngưỡng_mộ 70700
Bu@@ 70669
bất_ổn 70610
bắt_cóc 70606
bệnh_tật 70603
cấp_uỷ 70581
mã_lực 70545
tị_nạn 70512
tia 70479
Ngân 70465
Hồ_Ngọc_Hà 70450
ella 70413
nước_biển 70409
Palestine 70405
mái_tóc 70347
nhậu 70315
4% 70253
tưởng_tượng 70245
au@@ 70210
Viên 70210
gian 70154
um@@ 70150
ed 70133
giáo 70125
idae 70108
bài_tập 70062
88 70061
Duy 70040
3/@@ 70028
bước_đầu 70024
tiền_tệ 70009
Chu_@@ 69994
hết_mình 69983
hàng_hải 69933
Vương 69918
a-@@ 69899
đất_liền 69894
Qatar 69849
Trường_Giang 69847
Toán 69834
gian_lận 69796
phụ_kiện 69779
lặn 69777
6% 69754
cảnh_quan 69746
Giấy 69745
Cảnh 69709
luộc 69688
gia_hạn 69682
Sơn_@@ 69675
liệt_sĩ 69636
Be@@ 69621
no 69620
Bảng 69574
cảm_biến 69566
mồ_hôi 69542
ata 69534
av@@ 69528
để_ý 69512
ngô 69509
Nhất 69495
Har@@ 69493
me 69480
ngoại_ngữ 69475
.com 69458
cốc 69457
bỏng 69442
nhà_thờ 69366
Vẫn 69363
trợ_cấp 69318
tuyết 69302
Hữu_@@ 69273
phân_loại 69245
1991 69237
Giữa 69230
Đại_biểu 69228
ya 69225
nghiệp 69102
im 69100
99 69096
từ_chức 69091
sinh_thái 69076
59 69071
Huyền 69029
Lợi 69004
cáp 69001
5.@@ 68993
4/@@ 68972
kê_khai 68952
thường_niên 68939
tư_thế 68939
quyết 68912
60% 68910
Tuyến 68866
địa 68862
Châu_@@ 68831
đồng_thuận 68815
Kiev 68812
địch 68770
po@@ 68760
bar 68694
lành 68693
mô 68690
Do@@ 68690
Siêu 68655
i-@@ 68649
táo 68636
triệu_tập 68611
di 68605
Sản_phẩm 68587
bể 68574
hoàn 68567
qua_lại 68503
tỷ_giá 68490
ng-@@ 68463
tự_tử 68407
tò_mò 68393
giới_tính 68378
đạp 68327
GB 68281
Grab 68271
chui 68268
nghĩa_là 68199
thủng 68188
giọt 68176
chào_đón 68163
vang 68141
8% 68138
Tên 68111
900 68105
Phượng 68089
iOS 68053
bến_xe 68052
buôn_lậu 68028
khép 67994
đẹp_mắt 67930
dương 67906
1-@@ 67897
chịu_đựng 67857
aceae 67839
Đình_@@ 67766
thấm 67759
vật_thể 67736
Chiến 67721
Barack_Obama 67689
ngành_nghề 67671
CNN 67666
Man@@ 67644
Chồng 67640
LG 67624
1.500 67613
điều_hoà 67583
chuông 67576
Sự_việc 67555
Liên_Hợp_Quốc 67536
giếng 67530
yêu_mến 67521
bỗng 67515
Nguyễn_Ngọc_@@ 67492
kim_ngạch 67455
hoạ_sĩ 67454
cây_trồng 67415
Đối_tượng 67414
Seoul 67413
cho_dù 67413
tự_chủ 67384
vốn_điều_lệ 67341
eb@@ 67318
lồng 67300
dải 67299
KH 67277
dầu_khí 67275
Ăn 67210
Toàn_bộ 67200
dạy_học 67196
tiềm_ẩn 67189
hở 67133
Công_Vinh 67133
15/@@ 67121
tập_hợp 66982
th 66955
gừng 66947
hoang_mang 66945
Tết_Nguyên_đán 66915
bình_đẳng 66914
Biên_phòng 66866
sườn 66866
thưa 66864
hiệu_ứng 66835
12/@@ 66834
Đào_@@ 66827
N.@@ 66827
Thọ 66822
Không_những 66814
Công_viên 66797
NLĐ 66789
phân_bón 66784
suy 66779
nhà_thiết_kế 66766
Tự 66757
1980 66737
khả_thi 66732
ví 66715
P.@@ 66699
Trí 66668
Điện_lực 66666
lưu_giữ 66651
cạn 66615
Gu@@ 66592
Phú_@@ 66588
Daily_Mail 66581
Sóc_Trăng 66557
hài_hoà 66549
những_ai 66537
Sony 66534
nuôi_dưỡng 66529
ác 66506
tự_xưng 66497
ur@@ 66461
71 66416
An_toàn 66411
trợ_lý 66403
hoàng 66401
đô 66393
nảy_sinh 66382
Ngành 66363
mới_mẻ 66362
Yên 66359
Công_thương 66350
hoãn 66345
thương_tích 66340
tuyển_thủ 66328
Bệnh 66303
phục 66286
Mỹ_@@ 66244
vinh_dự 66235
ập 66178
gác 66154
thư_giãn 66136
Chiến_tranh 66131
vật_dụng 66126
Vị 66124
lên_đường 66120
buôn 66096
Máy_bay 66075
BMW 66043
Vòng 66032
ẩn 66030
PSG 66024
B. 66014
cài_đặt 66010
khoang 65990
mía 65974
’ 65970
dân_tộc_thiểu_số 65966
hoành_tráng 65960
Tu@@ 65958
1975 65955
Si@@ 65949
mi@@ 65918
độ_phân_giải 65916
Mỹ_Đình 65899
thất_nghiệp 65893
Bị_cáo 65840
rải_rác 65836
đồng_bằng 65788
khai_trương 65759
dỡ 65748
quét 65687
trọn_vẹn 65683
Sử_dụng 65681
van 65671
BBC 65659
Chuyên_gia 65647
chăm_lo 65639
6.@@ 65595
Kon_Tum 65581
đối_xử 65578
thể 65577
PTNT 65559
ka 65557
Bạc_Liêu 65548
lên_án 65528
_t@@ 65518
nứt 65517
ngắn_hạn 65507
bắt_gặp 65494
độc_quyền 65445
Làng 65434
ấm_áp 65418
cồn 65414
vứt 65407
nhà_cung_cấp 65384
8.@@ 65371
Liệu 65367
MTV 65359
hô_hấp 65338
đoàn_viên 65324
Hoạt_động 65319
Phút 65309
Thuế 65292
03 65271
Tình 65260
Yến 65237
4,@@ 65210
mì 65192
đổ_bộ 65191
7/@@ 65174
tiểu_thuyết 65129
chứng_cứ 65109
Bến_Tre 65109
CA 65091
Đoạn 65033
Từng 65027
FDI 64995
ig@@ 64947
Mấy 64944
Vĩnh_Long 64938
bất_hợp_pháp 64917
kẹt 64875
Tổng_Công_ty 64864
82 64854
Online 64843
Kết_thúc 64815
rồng 64802
Phố 64799
tồi_tệ 64795
bài_toán 64704
Hiện_trường 64687
triển_vọng 64682
ec@@ 64673
điều_động 64614
La_Liga 64599
công_sức 64589
Biết 64585
p_@@ 64584
Phạm_Thị_@@ 64571
áp_đặt 64562
chữ_ký 64531
09@@ 64529
TQ 64514
tim_mạch 64511
92 64481
scandal 64478
8/@@ 64477
nhặt 64476
hoàn_chỉnh 64450
hu@@ 64437
Libya 64402
Điện 64377
lốc 64366
Sáu 64365
dại 64362
toán 64360
ngưng 64357
Ninh 64356
hoá_học 64341
61 64326
gối 64307
Go@@ 64277
yếu_kém 64264
Colombia 64251
76 64249
Cảng 64240
6.000 64227
NH 64180
nhà_thơ 64176
Món 64121
15% 64116
_P@@ 64103
đấu_trường 64095
cổ_phần_hoá 64058
đun 64034
út 64002
lật 63943
rắc_rối 63926
nông 63915
oan 63914
mũ 63905
xào 63864
giàn 63858
tương_tác 63851
Châu_Á 63848
Điện_Biên 63847
nhường 63822
lực_lượng_vũ_trang 63746
cố_vấn 63669
chiên 63660
Hoàng_Mai 63628
Linh_@@ 63626
az@@ 63620
mùng 63619
xơ 63603
Rooney 63544
thủ_tướng 63541
New_Zealand 63448
bản_chất 63443
and@@ 63434
1,2 63424
tám 63357
Lượng 63356
giản_dị 63346
tiếp_thu 63338
Vladimir_Putin 63322
ưa_chuộng 63291
Dù_vậy 63283
Đức_@@ 63279
ổn 63260
05 63248
36,@@ 63229
2-1 63226
bản_án 63218
công_vụ 63195
7.@@ 63190
xông 63187
me@@ 63172
bảo_tàng 63171
khắc 63157
95 63135
t-@@ 63134
cán 63121
thuỷ 63117
sạch_sẽ 63115
kiểm_toán 63091
Khoản 63065
sản 63057
kiềm_chế 63051
Tiếp_tục 63038
lên_ngôi 63028
nạp 62994
thoả_mãn 62945
nhân_đạo 62933
phái 62930
Đồng_chí 62904
thể_loại 62880
rò_rỉ 62878
xâm_hại 62868
73 62818
CTCP 62805
lan_toả 62772
gợi_ý 62766
Con@@ 62739
ae 62725
nghệ_nhân 62713
3G 62703
ngăn_cản 62702
dung_lượng 62660
thang 62623
khoác_áo 62582
thủ_công 62551
sơ_sinh 62535
trầm_trọng 62526
mưa_lũ 62517
thuận_tiện 62503
86 62482
69 62454
Thanh_Xuân 62447
Hoàng_gia 62433
lau 62432
thể_lực 62417
Vùng 62388
khám_chữa 62384
Huyện 62365
phim_truyền_hình 62328
đột_biến 62322
thoáng 62308
điều_khoản 62275
Bảy 62226
hưởng_ứng 62217
khám_nghiệm 62214
chất_độc 62171
+@@ 62157
gắn_kết 62155
As@@ 62154
vô 62152
6,@@ 62120
diễn_tập 62083
tư_liệu 62065
nhện 61994
ne 61990
kiến_tạo 61950
Ti@@ 61911
é@@ 61855
khe 61852
sắc_đẹp 61849
lắp_ráp 61841
tối_cao 61840
Công_trình 61833
ra_lệnh 61802
Thời 61797
11/@@ 61778
= 61747
sĩ_quan 61700
hẹp 61698
Hương_@@ 61678
sai_sót 61674
thánh 61662
chủ_nghĩa 61656
mật_ong 61654
_D@@ 61627
Ngược_lại 61620
cương_vị 61596
công_thức 61569
Thông 61565
chữa_trị 61562
hố 61541
Cor@@ 61523
mệnh_danh 61522
chủ_quan 61514
chất_béo 61500
góp_ý 61475
hiệu_trưởng 61443
thủ_lĩnh 61428
tâm_trạng 61421
thu_gom 61414
rùa 61402
hành_nghề 61382
tự_ý 61375
Báo_chí 61363
lâm 61354
tận_hưởng 61340
Nguyễn_Đức_@@ 61324
25% 61317
KCN 61308
phán_quyết 61305
Tiểu_học 61206
trình_báo 61201
chủ_chốt 61158
kháng_chiến 61111
77 61094
anh_trai 61079
hi_vọng 61077
ôn 61074
tiếng_nói 61034
cổ_điển 61029
định_kỳ 61023
ăn_mặc 61002
bẫy 61002
hình_phạt 60999
9% 60996
tus 60995
bùn 60994
láng_giềng 60983
rộng_lớn 60978
mười 60969
Com@@ 60950
chứng_chỉ 60941
gặp_mặt 60922
ban_đêm 60898
trùng 60878
âm_mưu 60874
M.@@ 60867
danh_dự 60853
2030 60818
bi 60810
Mon@@ 60745
võ 60739
con_cháu 60721
ấn 60721
set 60715
Mạnh 60711
nhân_chứng 60699
c_@@ 60695
gh@@ 60689
nước_mắm 60682
dự_toán 60680
thắp 60677
per@@ 60674
mỹ_nhân 60671
Nguyễn_Hữu_@@ 60655
khái_niệm 60644
ley 60641
19@@ 60637
còi 60573
phê_bình 60564
đầu_ra 60555
Cựu 60503
Mới 60496
4.0 60424
dễ_thương 60388
tâm_hồn 60387
trụ_cột 60377
Thiết_kế 60366
uỷ_quyền 60363
_T@@ 60354
ers 60345
kê 60340
protein 60316
ic 60313
Long_Biên 60307
NSND 60300
Ba_Đình 60296
2/@@ 60280
vợ_con 60257
phân_bố 60247
màn_ảnh 60231
kỹ_lưỡng 60223
ou@@ 60219
môi_giới 60216
Bình_Phước 60206
cận 60204
vũ_trang 60199
Pi@@ 60174
30/@@ 60134
nhân_tố 60116
Ru@@ 60112
cháo 60112
tiểu_bang 60111
lo_sợ 60078
thửa 60059
ay 60041
rõ_rệt 60021
Phi 60018
Gió 60010
Hollywood 59999
chén 59997
Al-@@ 59961
anh_chị 59955
1000 59954
Cầu_thủ 59952
lão 59924
bùng_phát 59885
op@@ 59884
chắn 59830
Đan_Mạch 59806
lời_nói 59789
ANTĐ 59785
máy_ảnh 59749
bình_yên 59684
lấn_chiếm 59633
il 59609
CT 59595
Duy_@@ 59587
Chẳng 59583
tốn_kém 59572
04 59571
79 59560
thìa 59512
Máy 59500
luyện_tập 59487
ang@@ 59487
sứ 59485
thiếu_nhi 59457
Ki@@ 59456
Mu@@ 59441
ngoài_trời 59432
hé 59423
Hoàn_vũ 59400
gốm 59387
Te@@ 59371
ướp 59364
đùa 59348
lưỡi 59342
Khanh 59332
Phát 59319
Tây_Ninh 59297
má 59295
SV 59276
25@@ 59267
Hai_Bà_Trưng 59261
Thầy 59260
Lee 59255
74 59242
EVN 59237
tên_lửa_đạn_đạo 59228
Saudi_Arabia 59221
kiểm_định 59207
Tam_@@ 59184
Thiên 59177
báo_giới 59174
chán 59146
viện_trợ 59144
tầng_lớp 59118
mâm 59114
Ad@@ 59101
1988 59093
nhãn_hiệu 59089
Đàm_Vĩnh_Hưng 59067
Công_đoàn 59067
Pa@@ 59049
nhiễm_trùng 59001
riêng_tư 58966
Thống_kê 58929
ate 58920
sơ_tán 58882
tâm_huyết 58881
vào_vai 58875
Giống 58843
chăm_chỉ 58824
thần_tượng 58756
chủ_lực 58750
đúng_đắn 58733
đến_nơi 58729
tưới 58715
bí_quyết 58711
Tiên 58702
lý_thuyết 58657
2-0 58652
Thủ_Đức 58638
V. 58624
1989 58584
kim_cương 58526
Thay_vì 58523
mệt 58522
Old_Trafford 58504
5,@@ 58434
bầu_trời 58412
ưu_thế 58392
9/@@ 58326
RAM 58316
điệu 58313
Chàng 58297
tắc 58273
axit 58246
hoang_dã 58240
đội_trưởng 58228
lượt_đi 58223
pi@@ 58221
hiện_thực 58219
Crimea 58213
khoáng_sản 58169
tư_pháp 58148
Thiếu_tướng 58143
Pro@@ 58143
cải 58130
golf 58117
coi_trọng 58110
Tạp_chí 58108
thảo 58106
Đông_Nam 58106
con_em 58099
Dòng 58095
Thiện 58094
kiểm_điểm 58076
đa_khoa 58073
Khoa_@@ 58071
Thí_sinh 57978
em_trai 57933
xám 57891
3,5 57827
con@@ 57821
ca_hát 57818
đoàn_thể 57804
Cận_Bình 57781
trực 57780
Trinh 57769
ts 57766
Quy_định 57754
hiện_đại_hoá 57754
84 57735
khủng_khiếp 57718
sụt_giảm 57704
ani 57694
Hoài_Linh 57661
83 57653
Không_thể 57633
tín_nhiệm 57613
đại_hội 57589
Vợ_chồng 57588
giải_trình 57559
Ca_sĩ 57554
quả_tang 57542
Nghệ_thuật 57535
nhà_nghỉ 57532
cu@@ 57531
Bộ_luật 57523
nhôm 57513
ngoại_tình 57506
Bố 57491
chỉnh_sửa 57458
chăm 57404
nghệ 57401
động_tác 57401
Lao_Động 57396
ròng 57395
Mc@@ 57380
Sơn_Tùng 57354
ko@@ 57329
dự_bị 57309
thị_trường_chứng_khoán 57299
Rõ_ràng 57271
sư_phạm 57259
Lấy 57226
Ri@@ 57226
Instagram 57200
tử 57195
hoa_hồng 57184
ah@@ 57157
cố_ý 57151
địa_hình 57105
lai 57081
Thuý 57075
Tỷ_lệ 57037
kích_hoạt 57035
vú 57031
quy_tắc 57021
dây_chuyền 57014
TH@@ 57005
cưng 56995
Thượng 56955
giới_chức 56950
YouTube 56946
ngọc 56943
sa_thải 56938
Chứng_khoán 56934
Kar@@ 56919
_K@@ 56910
vừa_rồi 56885
mặt_nạ 56883
công_chúa 56877
XII 56870
vĩ_đại 56856
cư_trú 56831
xay 56826
mơ_ước 56809
phát_ngôn 56791
hữu_ích 56785
Pe@@ 56774
vắng_mặt 56764
làng_nghề 56750
Công_việc 56733
đánh_bạc 56731
nhiệt_đới 56701
cổ_truyền 56700
kế_toán 56657
QH 56626
Cấp 56619
ru@@ 56582
sống_sót 56558
Chiến_lược 56540
kháng_sinh 56535
1.0@@ 56526
mạo_hiểm 56513
trước_hết 56500
ĐBSCL 56494
nắp 56443
lún 56410
300.000 56379
ngày_mai 56362
PGS 56319
VND 56318
Nguyễn_. 56316
cứu_trợ 56314
78 56309
Hợp_tác 56304
làn_sóng 56282
vực 56266
cỗ 56247
chăn 56213
Đà 56213
Khang 56208
nhà_ga 56202
Phúc_@@ 56200
AC 56175
muỗi 56175
bận 56169
địa_phận 56163
thềm 56140
9X 56128
gian_hàng 56126
hoạ_tiết 56117
hàng_rào 56117
duyệt 56103
danh_tính 56072
Đang 56049
vừa_phải 56025
Tân_Sơn_Nhất 55976
hồn 55973
w 55916
sư 55899
gas 55884
Nhà_báo 55873
Cháu 55864
City 55861
gia_cầm 55850
mờ 55841
doạ 55838
hoa_quả 55824
rước 55813
thủ_thành 55799
đèo 55793
XH 55790
giao_hữu 55746
triều 55739
xếp_hàng 55736
5-@@ 55733
vũ_khí_hạt_nhân 55723
FA 55720
Ninh_Thuận 55698
PVN 55691
Giọng 55688
vạch 55683
vi 55662
làm_quen 55635
kiên_trì 55630
sexy 55629
ve 55625
ATGT 55609
PGS.TS 55598
Căn_cứ 55597
n-@@ 55565
lõi 55559
nhân_văn 55551
cầm_quân 55544
tủ_lạnh 55524
Mời 55470
gầm 55451
ra_quân 55443
Hậu_Giang 55410
al_@@ 55406
danh 55388
khuôn_viên 55386
phê_chuẩn 55368
Cụ 55362
nhân_dịp 55361
.vn 55351
xâm_phạm 55301
mày 55297
ard 55289
vinh_danh 55251
car@@ 55215
lốp 55198
quốc_tịch 55139
kháng 55135
thảm 55129
Trẻ 55122
Học 55113
liên_bang 55111
gen 55106
người_tình 55097
Bayern 55088
mar@@ 55067
trung_thành 55053
Dự_thảo 55041
Khánh_@@ 55018
quan_ngại 55012
tô 55009
lăn 55000
tức_giận 54959
đơn_thuần 54940
thành_quả 54908
Trang_@@ 54906
Mor@@ 54897
Bởi_vậy 54895
thăm_hỏi 54886
tâm_thần 54881
Lai_Châu 54880
bản_sắc 54878
siết 54869
tích 54852
du_học 54840
vặt 54786
cài 54777
thị 54771
Jo@@ 54737
điều_tiết 54735
mu@@ 54721
Lam 54721
cò 54717
08 54717
BĐBP 54713
sinh_sản 54688
1982 54684
IV 54672
Phước 54650
cong 54616
ak 54615
tín_đồ 54603
dũng_cảm 54603
phúc_thẩm 54603
30@@ 54595
góc_độ 54555
chiều_tối 54518
tội_danh 54507
cà_chua 54506
thiện 54494
lon 54479
chóng_mặt 54472
Nhung 54451
khắc_nghiệt 54425
87 54417
tiểu_đường 54396
11.@@ 54376
cao_tuổi 54374
be@@ 54371
tạ 54353
Cửu_Long 54334
dưa 54309
ruồi 54299
10.@@ 54276
TH 54259
Ban_Chấp_hành 54258
Bác_Hồ 54228
Ke@@ 54215
cô_đơn 54201
Nhật_@@ 54191
nhà_vệ_sinh 54190
Tiểu_@@ 54171
HD 54170
chua 54156
1-1 54069
Miền 54069
gu@@ 54052
chiến_đấu_cơ 54052
ván 54050
liên_ngành 54019
der 54010
in_@@ 54000
ri 54000
ống_kính 53960
pháo_hoa 53958
Thông_qua 53945
ơn 53929
TT@@ 53925
cất_cánh 53907
1986 53905
Miura 53875
tử_cung 53867
Nạn_nhân 53847
Sal@@ 53797
24@@ 53790
Tiền_Phong 53749
Hồ_@@ 53746
sổ_đỏ 53736
En@@ 53710
bộ_đội 53706
màng 53694
one 53681
bơ 53671
Danh_sách 53632
tước 53625
Chile 53619
luyện 53614
giấc_ngủ 53613
phân_bổ 53607
đa_phần 53602
23@@ 53600
Manchester_United 53598
rào_cản 53585
lan_truyền 53554
40.000 53539
cũng_nên 53521
bộ_môn 53499
dị_ứng 53493
quầy 53493
Tăng_cường 53490
Dầu_khí 53413
Hạ 53398
Chuyến 53381
Mal@@ 53373
Per@@ 53340
trẻ_con 53340
siêu_mẫu 53317
Thừa_Thiên 53285
loại_trừ 53266
đường_ống 53262
Biển_Đông 53262
W 53251
thông_tấn 53226
khung_thành 53214
Hiến_pháp 53209
thủ_đoạn 53196
Jong-un 53194
bất 53186
đảm_nhiệm 53182
ngày_đêm 53159
chốn 53152
Biên_Hoà 53140
thèm 53127
hội_viên 53110
giảng 53091
vách 53088
7.000 53081
ki 53066
20/@@ 53065
văn_nghệ 53033
Nhằm 53030
vĩ_mô 53017
gìn_giữ 52982
tán 52976
mặt_nước 52963
kề 52955
Hiển 52941
nghệ_sỹ 52921
ghi_hình 52908
S. 52899
K. 52882
Khách 52877
bất_đồng 52869
giúp_việc 52860
nhà_phân_tích 52817
Đánh_giá 52803
tổn_thất 52787
phối 52784
thể_chế 52732
san 52716
Nằm 52693
81 52656
xã_hội_hoá 52655
Cúc 52645
Sư_phạm 52640
kẻ_thù 52637
st@@ 52633
Ab@@ 52628
dần_dần 52627
chuyên_đề 52589
mịn 52583
ứng 52563
ý_chí 52549
Ngoại_hạng 52549
Thế_@@ 52530
sưng 52518
định_giá 52499
350 52459
cơ_động 52451
ồn 52436
vân 52414
xinh 52348
Hán 52321
bế_tắc 52281
TW 52258
truy 52237
khiêm_tốn 52216
tích_luỹ 52216
tháo 52206
Chùa 52205
cãi 52195
khởi_kiện 52192
cấp_độ 52191
go@@ 52185
hứng 52185
Huệ 52182
UNESCO 52152
rẽ 52147
họng 52140
A.@@ 52128
bất_lợi 52093
phong_thuỷ 52081
Đào 52075
15.000 52050
hái 52037
Hoá 52010
8.000 51974
bước_tiến 51959
cho_nên 51954
xổ_số 51947
cuộc_gọi 51936
Sputnik 51924
Thông_thường 51905
Phật_giáo 51895
1/3 51889
lỏng 51876
tháo_dỡ 51868
Ku@@ 51861
Amazon 51843
nhận_lời 51812
pro@@ 51797
ber@@ 51786
nấu_ăn 51784
sụp_đổ 51764
cao_tầng 51764
đầu_bảng 51748
Nam_Bộ 51729
cầm_quyền 51728
thầy_giáo 51726
người_phát_ngôn 51723
89 51703
3-@@ 51699
buông 51695
nén 51687
Tin_tức 51661
ko 51658
kiểu_dáng 51617
thi_tuyển 51600
tang_vật 51599
ngữ 51554
trong_sáng 51543
Tuần 51542
Kurd 51518
Tuyên_bố 51493
DL 51483
ce 51476
xoáy 51459
ốm 51459
nhận_diện 51457
cập 51439
A-@@ 51430
lưu_niệm 51428
bún 51397
trầm_cảm 51389
Oscar 51377
USS 51354
biên 51346
tạo_hình 51337
tivi 51325
VN@@ 51287
lớn_tuổi 51279
Hoà_@@ 51279
1987 51261
sân_vận_động 51256
San@@ 51225
Vân_@@ 51199
HTC 51196
Nữ_hoàng 51177
gia_súc 51176
Khác 51169
nho 51162
suy_thoái 51162
Nghệ 51155
vớt 51140
khía_cạnh 51126
tuyển_chọn 51116
00@@ 51111
sỏi 51111
nước_ngọt 51108
Xuân_Trường 51090
bảo_dưỡng 51079
Yên_@@ 51067
ngỡ_ngàng 51066
đồng_tính 51065
_V@@ 51035
lề 51031
1970 51030
web 51008
Bayern_Munich 51003
Intel 51001
110 51000
Đô_thị 50990
xinh_xắn 50974
Pháp_luật 50958
tiên_phong 50933
alis 50930
Đền 50914
Giáng_sinh 50911
muỗng 50879
biến_chứng 50877
xoá_bỏ 50874
tất_nhiên 50834
Thịt 50831
linh_kiện 50788
Thạch_@@ 50788
Thay 50739
nhà_chức_trách 50727
91 50720
Xanh 50716
Sinh_viên 50690
Thi 50689
cuốn_hút 50688
lưu_lượng 50676
cấu_hình 50671
bắt_mắt 50664
chảo 50642
sơ_bộ 50641
táo_bạo 50637
tưởng_niệm 50630
Vài 50627
đau_khổ 50588
Tiến_@@ 50566
kiến 50561
rong 50542
2-@@ 50538
bê_bối 50526
Tuấn_@@ 50522
sinh_vật 50518
soạn_thảo 50488
Kỳ_Duyên 50460
chấn_chỉnh 50434
Ni@@ 50417
ini 50416
nồng_độ 50415
thuỷ_lợi 50410
hiệp_định 50406
Đơn_vị 50367
hàm 50364
công_cuộc 50339
thoái 50321
xoắn 50312
93 50295
lâu_nay 50264
mại_dâm 50245
on_@@ 50234
hội_đàm 50233
hiện_vật 50224
thác 50221
Diễn_viên 50207
CAND 50206
Định 50206
V.League 50198
rạng_rỡ 50192
nhạt 50170
Nghệ_sĩ 50156
ĐBQH 50155
Phát_hiện 50154
đặt_chân 50154
phá_hoại 50152
tài_tử 50152
Bốn 50125
tho@@ 50099
V.@@ 50065
hoan_nghênh 50056
96 50053
mắc_kẹt 50031
thua_lỗ 50018
ena 50007
Hy@@ 49981
dặm 49978
ngừng_bắn 49963
phong_toả 49961
e-@@ 49941
cản 49931
chu_đáo 49931
Trần_Đại_Quang 49925
QL@@ 49917
giòn 49891
mi 49889
lường 49886
Thống_Nhất 49879
ong_@@ 49876
Hoặc 49872
công_đoàn 49853
bổ 49850
mà_lại 49835
Cao_đẳng 49812
Quảng 49806
phẩm_chất 49789
thông_số 49788
HN 49786
đương_nhiên 49772
ế 49740
dê 49734
chào_mừng 49733
bày_bán 49715
bìa 49697
Triệu_@@ 49668
VPF 49647
lus 49594
tis 49587
Kinh_doanh 49585
ương 49575
trả_giá 49563
học_hành 49546
Ngôi_sao 49489
sếp 49483
bảo_hộ 49478
bộ_trưởng 49477
rụng 49475
thiết_yếu 49458
ca_ngợi 49436
Cao_Bằng 49435
bắt_nguồn 49430
nghĩa_trang 49411
tem 49397
tối_ưu 49390
cáo_trạng 49374
dịu_dàng 49344
huỷ_bỏ 49327
cổ_động_viên 49314
by 49301
C.@@ 49276
suy_yếu 49272
đều_đặn 49251
kết_cấu 49244
lập_công 49238
12.@@ 49227
AS 49221
laptop 49203
hiếm_hoi 49200
bài_bản 49197
ah 49173
nhẫn 49116
Anh_@@ 49116
sương_mù 49101
sử 49089
Đôi 49089
bề 49080
Suốt 49068
nguyện 49066
1945 49051
địa_lý 49045
Phần_lớn 49036
ngày_xưa 49011
Nhân_dịp 48995
leo_thang 48986
tri@@ 48974
phần_tử 48954
7,@@ 48923
Cu@@ 48916
Bi@@ 48906
khối_u 48903
Thành_@@ 48896
ea 48892
chú_rể 48879
khen_thưởng 48878
130 48842
Tiền_vệ 48835
1985 48832
hối_lộ 48810
túi_xách 48803
Thượng_Hải 48779
bày 48750
Yemen 48746
ĐB 48742
cho@@ 48742
phì 48737
Ag@@ 48705
gam 48696
06 48680
180 48645
tuyên_phạt 48640
TNO 48635
Quỹ_@@ 48630
đè 48622
luôn_luôn 48602
minh_chứng 48593
hôi 48576
sâm 48552
tra 48534
B.@@ 48495
ver@@ 48483
ATM 48438
Jordan 48433
L.@@ 48425
đếm 48417
Ba@@ 48401
trở_ngại 48400
Thu_@@ 48392
Thừa_Thiên_Huế 48388
hữu_cơ 48366
hiệu_suất 48363
khí_đốt 48363
sâu_rộng 48356
hạt_giống 48340
xu_thế 48337
Ukraina 48335
ad 48325
Group 48321
y_học 48302
xứ_sở 48295
thiếu_nữ 48286
giật_mình 48277
4G 48274
điên 48273
mầm 48262
truy_nã 48236
karaoke 48231
quần_chúng 48182
ung 48170
Đứng 48167
ngần_ngại 48165
LĐLĐ 48159
tuyên 48154
á@@ 48146
chảy_máu 48144
Bangkok 48132
Vietnam_Airlines 48120
quyền_hạn 48117
dọn_dẹp 48102
biệt_danh 48101
riêng_biệt 48083
nhà_tài_trợ 48076
Bóng_đá 48071
dày_đặc 48045
Can@@ 48044
trúng_tuyển 48043
Chiến_dịch 48028
rễ 48019
thư_viện 48018
Sự_kiện 48017
đặc_nhiệm 48011
Chúc 48009
aria 48009
Quảng_@@ 47996
khí_thải 47988
đại_sứ 47986
hoà_giải 47984
giãn 47971
Anh_Tuấn 47955
thế_chấp 47951
sim 47937
Nguyễn_Đình_@@ 47916
Hungary 47908
Cas@@ 47904
ham 47898
Tiền_đạo 47880
ký_ức 47870
ly@@ 47857
nhận_biết 47851
lưu_hành 47848
cưỡng_chế 47845
liệt 47844
Chỉ_thị 47835
chính_đáng 47831
lệch 47823
cảm_ứng 47821
Ánh 47795
thuỷ_thủ 47784
nguội 47776
khuya 47776
chỉnh 47768
mini 47767
Chi@@ 47765
bảo_trì 47747
chửi 47720
xách 47710
Trà_Vinh 47707
tái_tạo 47699
Bitcoin 47689
tình_tiết 47686
ghét 47684
Nội_Bài 47678
tinh 47674
phản_cảm 47671
Ha@@ 47639
Tướng 47617
98 47592
Bàn 47568
phở 47550
Thường 47543
thủ_phạm 47539
Boeing 47536
Aleppo 47521
tác_hại 47513
giận 47513
e_S@@ 47512
gấu 47464
chuyển_hoá 47453
09 47446
phải_biết 47437
trang_sức 47426
quý_giá 47417
ti 47404
Đầu_tiên 47379
par@@ 47374
quay_phim 47369
Sống 47335
chiến_sỹ 47315
thu_hẹp 47305
an_sinh 47296
tra@@ 47288
khả_quan 47284
tiêm_kích 47277
Liên_hiệp 47255
chương 47247
com@@ 47238
tro 47237
khánh_thành 47231
cánh_tay 47227
Chính_trị 47205
ca_nhạc 47202
.vn. 47200
thỉnh_thoảng 47185
Quân_khu 47182
hit 47172
vô_số 47170
chìa_khoá 47150
Giang_@@ 47149
xa_lạ 47145
dầu_mỏ 47131
ica 47118
Trái_đất 47086
phá_sản 47085
da@@ 47083
kênh_truyền_hình 47049
tăng_tốc 47034
kỳ_hạn 47033
Ac@@ 47030
Di_sản 47027
nhiếp_ảnh_gia 47024
bú 47012
giao_diện 46983
Thống_đốc 46966
id 46965
Tuyên_Quang 46939
tràn_lan 46886
Quỳnh_@@ 46879
Đạo_diễn 46875
Ly 46850
Tăng 46761
kéo_theo 46759
trí 46749
cảnh_giác 46743
lặp 46736
Yêu 46721
mặt_trận 46716
khuyết_điểm 46712
Quy_Nhơn 46682
dược 46681
bí 46640
Sau_này 46632
Na_Uy 46627
Thơ 46624
ing@@ 46604
1-0 46596
% 46594
SHB 46589
Clinton 46577
trách 46574
tả 46573
mốt 46568
mô_tô 46561
Liên_@@ 46560
Á 46547
Lịch 46519
Chỉ_số 46504
song_song 46502
Cộng_sản 46487
đùi 46471
tỉnh_táo 46469
Cẩm_@@ 46469
Nghi 46465
La 46463
lượt_về 46462
ino 46435
Học_sinh 46430
tiện 46429
năm_tháng 46413
aw@@ 46389
quý_hiếm 46369
du 46310
31/@@ 46308
một_ít 46292
Cương 46272
bin 46247
phát_ngôn_viên 46229
Giai_đoạn 46222
đại_dương 46207
tuổi_trẻ 46199
Man_Utd 46180
LED 46172
đường_kính 46167
Cá 46161
nh 46149
hợp_nhất 46144
lục_địa 46144
BIDV 46140
xi_măng 46097
Tim 46094
chiêu_mộ 46090
tỉnh_thành 46087
tri_ân 46002
tàu_thuyền 45987
giây_phút 45969
que 45960
VKSND 45960
Tham_gia 45949
phòng_khám 45941
CH@@ 45941
biên_phòng 45938
nhà_trọ 45923
Phiên_bản 45918
ưu_điểm 45915
bộc_lộ 45910
thao_tác 45896
ca_sỹ 45873
Nguyễn_Phú_Trọng 45855
Thuỷ_@@ 45854
Nguyễn_Thanh_@@ 45847
ăn_mừng 45843
đụng_độ 45832
lộc 45827
ly_khai 45807
liên_doanh 45788
hư 45752
tổn_hại 45750
ư 45742
ai@@ 45724
Chính_sách 45720
Hạ_viện 45719
tẩy 45717
xe_ôm 45702
nghị_sĩ 45680
sôi_nổi 45667
Bình_Thạnh 45656
7-@@ 45634
côn_trùng 45634
1A 45630
không_thể_nào 45606
Thân 45598
chuyển_động 45593
dồi_dào 45589
Hình_sự 45589
tiếc_nuối 45587
TPO 45583
Đen 45575
cường_quốc 45573
mạnh_dạn 45571
Kiều_@@ 45571
đắng 45543
Tây_Hồ 45538
Đảo 45537
lầm 45510
bản_địa 45508
ni 45494
soi 45479
Cha 45463
pp@@ 45457
Chương 45442
Sách 45437
RT 45431
un 45426
năm_tuổi 45411
trào_lưu 45396
Hành_động 45383
mù 45376
chào_bán 45369
mới_lạ 45366
Cộng_đồng 45348
Tân_Bình 45323
chiêm_ngưỡng 45302
Chân 45294
Her@@ 45294
Cán_bộ 45291
vấp 45284
tập_thể_dục 45283
CS@@ 45277
sướng 45275
Vietcombank 45272
Mas@@ 45258
bikini 45253
8-@@ 45235
Phạm_Hương 45231
He@@ 45228
xuống_đường 45223
Bạch_@@ 45209
quen_biết 45208
thất_thoát 45208
đề_phòng 45195
làm_giàu 45191
chọn_lựa 45177
nguy_kịch 45175
quốc_hội 45167
xấu_hổ 45161
ke 45148
bảo_lãnh 45127
hẻm 45124
lâu_đời 45117
Lập 45109
VN-Index 45106
9,@@ 45100
nhà_đất 45092
trung_thực 45089
đầu_vào 45030
liveshow 45020
Khách_hàng 45018
hội_tụ 45013
Youtube 45004
C-@@ 44977
Núi 44957
họ_hàng 44950
Thượng_viện 44949
toàn_thể 44949
tàn_phá 44916
tiêu_huỷ 44912
Trái_Đất 44902
sóng_gió 44898
8,@@ 44894
nhái 44893
đồ_hoạ 44890
lục 44870
dắt 44869
mở_màn 44868
Tuyết 44863
tion 44840
man@@ 44838
thể_dục 44837
Số_lượng 44836
1960 44798
đế 44796
ell@@ 44772
Z 44768
_l@@ 44760
suýt 44755
Ber@@ 44727
Chợ 44727
điển_trai 44725
Cal@@ 44725
thiệt_thòi 44709
pe@@ 44693
cởi_mở 44675
tụ_tập 44647
tâm_linh 44636
tân_binh 44635
Chú 44634
khuyến_mãi 44613
ướt 44596
Phước_@@ 44584
vùng_cao 44575
29@@ 44574
thương_lái 44563
hầu 44557
canh_tác 44556
hiếp_dâm 44548
Moskva 44537
thế_trận 44532
4-@@ 44517
háo_hức 44516
phu_nhân 44514
sét 44511
đệm 44509
thanh_lịch 44492
hình_tượng 44488
môn_học 44482
bóc 44474
19/@@ 44458
nêm 44455
Đ 44439
Hỗ_trợ 44433
xẻ 44425
giờ_địa_phương 44421
âm_lịch 44420
chuẩn_mực 44413
bộ_binh 44403
thai_nhi 44399
hoạ 44397
đau_lòng 44390
nghiêm_ngặt 44370
nốt 44326
bánh_mì 44298
the@@ 44287
dung_tích 44274
bền 44253
USB 44235
1984 44217
ent 44204
đặc 44203
nhân_loại 44202
tốp 44201
búp_bê 44193
kẹo 44185
Tường 44177
3-4 44161
bus 44149
Ngày_nay 44145
gạt 44123
Vietlott 44116
Giờ_đây 44108
chủ_nhiệm 44102
St@@ 44090
MobiFone 44089
đến_nỗi 44075
Triều 44056
| 44053
Ju@@ 44041
lót 44034
cứu_hoả 44019
du@@ 43994
thầu 43978
lão_hoá 43950
tự_sát 43945
thế_lực 43930
Tp. 43929
canxi 43928
Nguyên_liệu 43914
võ_thuật 43898
rung 43897
đắt_đỏ 43889
chuồng 43887
07 43883
tố_tụng 43873
vọt 43871
li 43868
nước_nhà 43863
Bệnh_nhân 43824
số_ít 43783
Cho@@ 43772
Ta@@ 43765
Càng 43755
land 43754
teen 43731
cầu_vượt 43729
thon 43712
94 43707
đục 43703
quân_nhân 43657
Lee_@@ 43657
dịu 43631
ca@@ 43603
pháp 43591
Độ_ẩm 43585
vội_vàng 43583
Huân_chương 43579
Vị_trí 43564
Nguyễn_Xuân_@@ 43562
sân_cỏ 43556
vậy_mà 43556
dòng_chảy 43534
Đồn 43504
VI@@ 43492
_R@@ 43436
khỉ 43436
Giám_đốc_điều_hành 43420
ừ 43418
Phùng_@@ 43411
Trời 43401
thuyền_trưởng 43397
S-@@ 43395
Vốn 43366
tiện_lợi 43363
gai 43360
Mối 43358
J 43356
sáng_tỏ 43354
NH@@ 43344
quyển 43330
nhà_tù 43319
rút_lui 43318
tử_hình 43314
au 43308
giả_mạo 43306
kích 43298
hoá_thân 43288
trung_học 43279
xúc_phạm 43278
âm_thầm 43253
tái_hiện 43242
dự_luật 43236
Bà_Rịa 43235
lắc 43235
ari@@ 43235
Roma 43233
tui 43229
kì 43222
Độ 43169
97 43164
truyền_tải 43150
NXB 43149
rể 43146
125 43132
điểm_số 43128
NTK 43115
Mông 43109
vương_miện 43102
Thuỷ_Tiên 43083
40@@ 43061
Ra@@ 43058
Bắc_Mỹ 43054
ô@@ 43052
25/@@ 43049
ngh@@ 43048
gót 43028
ban_ngày 43019
era 43013
ler 42984
For@@ 42972
Lại 42961
kè 42961
cường_độ 42959
Sự_nghiệp 42958
Thượng_@@ 42956
Đời_sống 42913
nuốt 42899
ck 42890
lọ 42886
quyền_sở_hữu 42885
khán_đài 42884
lây_lan 42879
Thông_báo 42879
Ros@@ 42867
kỹ_thuật_số 42849
kỷ 42849
dở 42847
Chiến_thắng 42825
LĐ 42809
khuyến_mại 42808
tor 42807
bảo_hiểm_y_tế 42805
tuổi_thọ 42793
thiếu_hụt 42786
ff@@ 42760
ND 42743
tiểu_thương 42739
nổ_súng 42737
ck@@ 42735
bấy_giờ 42728
é 42714
hiện_hữu 42680
Wenger 42668
tình_cờ 42663
for@@ 42640
Phong_@@ 42628
Vẻ 42624
Nhà_văn 42604
AN 42594
Tối_cao 42592
nghiêm_khắc 42584
vận_dụng 42580
Phóng_viên 42576
tiến_triển 42573
it 42568
văng 42561
Duyên 42545
Tư_lệnh 42544
ấn_định 42543
nhậm_chức 42514
QĐ-TTg 42491
VOV.VN 42478
Căn 42471
160 42459
lật_đổ 42445
sex 42439
Sơn_Trà 42433
bảo_hành 42426
hoà_nhập 42423
mạch_máu 42417
HP 42403
cốt 42389
nhà_giáo 42387
Zing 42361
1979 42350
ngoại_ô 42347
nhọn 42314
Đoàn_@@ 42298
đường_thuỷ 42297
đinh 42290
quỳ 42287
Thương_binh 42268
Ge@@ 42265
LS 42264
ba@@ 42247
TR@@ 42235
sót 42221
ay_@@ 42166
ngôi_vị 42151
định_vị 42132
1.200 42128
Sp@@ 42117
Vừa_qua 42109
af@@ 42096
trung_gian 42088
end@@ 42079
lụa 42077
Tình_yêu 42066
tao 42060
bế 42057
ano 42034
Xét 42034
Hưng_@@ 42030
ens 42028
lỗ_hổng 42018
thân_mật 42002
Cristiano_Ronaldo 42000
ưa_thích 41997
lặng_lẽ 41986
Hôm_qua 41984
đương_kim 41942
Cửa 41942
sách_giáo_khoa 41936
SIM 41912
VietNamNet 41902
Bor@@ 41873
hành_hung 41873
EC 41863
Bình_Chánh 41848
ner 41841
núi_lửa 41827
sốt_xuất_huyết 41827
tù_nhân 41824
cổ_tức 41813
xoài 41809
6-@@ 41806
TPP 41804
óc 41796
hấp_thụ 41785
lộng_lẫy 41768
16/@@ 41754
ếch 41751
sư_tử 41734
nữ_tính 41732
tương_đồng 41732
vật_tư 41730
Tư_vấn 41724
bại 41724
Croatia 41718
huyết 41706
eg@@ 41700
dầu_thô 41694
Con_số 41689
chu_kỳ 41682
bè 41680
sứ_mệnh 41652
hoang 41647
Everton 41637
chuyên_dụng 41629
Công_văn 41628
Tuần_lễ 41628
chí 41618
VCK 41612
quyên_góp 41607
Sch@@ 41602
Nhã_Phương 41599
hoả_hoạn 41598
ara 41588
đột_nhập 41580
Uống 41578
trễ 41578
khung_cảnh 41565
khai_báo 41561
đồ_đạc 41553
Hiệp_ước 41549
MP 41540
hiện_trạng 41528
tân_@@ 41513
tro@@ 41496
kích_cỡ 41491
thô 41490
tát 41486
Quang_Trung 41479
9.000 41472
Kết_luận 41458
La@@ 41455
Jose_Mourinho 41445
28/@@ 41419
AIDS 41400
Hoàn 41377
hình_dáng 41357
Giao 41349
My@@ 41348
tạo_dáng 41345
bạo_hành 41344
bình_ổn 41328
tri_thức 41313
Min@@ 41298
móc 41267
thể_chất 41259
vành_đai 41236
EURO 41229
Tô_@@ 41219
nuôi_trồng 41215
Phần_Lan 41207
bỏ_hoang 41190
ine_@@ 41186
Phiên 41185
công_dụng 41162
nọ 41155
Nam_Mỹ 41150
rách 41140
tràn_ngập 41136
tu 41110
Tông 41105
bao_lâu 41099
chứng_từ 41083
27@@ 41081
14/@@ 41079
đốc 41078
ey 41071
khoai_tây 41057
Tây_Nam 41049
vừa_mới 41048
phấn_khởi 41027
thuyền_viên 41025
mon@@ 41020
quán_triệt 41012
cấp_bách 40999
ik@@ 40980
Đắk_Nông 40968
tàng_hình 40962
1968 40961
ent@@ 40955
quán_quân 40953
bình_dân 40946
FLC 40934
CH 40926
_F@@ 40923
kíp 40922
nhát 40917
Hợp_đồng 40910
Nigeria 40909
nhầm_lẫn 40899
đề_cao 40875
con_giáp 40875
Du_khách 40861
0% 40859
lội 40855
or 40855
loạn 40847
cởi 40845
Or@@ 40839
95% 40834
công_đoạn 40803
Ver@@ 40799
ml 40794
Q.@@ 40790
nhỏ_bé 40784
Km 40777
giam_giữ 40776
AN@@ 40723
bù_đắp 40720
cục_bộ 40695
do_vậy 40693
Berlin 40691
Oanh 40686
thiên 40685
tổng_giám_đốc 40673
Anh_hùng 40656
q@@ 40621
1,3 40611
lôi_kéo 40600
phản_công 40591
One 40589
1972 40587
4,5 40548
ngoạn_mục 40541
Luân 40525
chùm 40503
1983 40499
kháng_cáo 40492
nhuộm 40463
quy_chuẩn 40458
cô_lập 40449
nhà_hát 40442
CIA 40441
My 40434
_Đ@@ 40430
đụng 40427
May_mắn 40420
thương_mại_điện_tử 40393
Tổng_thư_ký 40384
đánh_đập 40384
diện_mạo 40366
tứ 40363
Mạnh_@@ 40348
Tổng_@@ 40346
lưu_trú 40341
đóng_tàu 40339
trăn_trở 40338
chân_dung 40315
va@@ 40314
cứng_rắn 40312
thương_vong 40266
9-@@ 40262
đường_lối 40260
phát_tán 40244
Huyện_uỷ 40233
Bộ_đội 40231
gió_giật 40230
gậy 40228
gom 40226
đệ 40225
mất_mát 40225
eri 40224
uỷ_ban 40212
danh_hài 40197
Bal@@ 40180
ngu@@ 40175
Ireland 40166
‘ 40163
bệnh_nhi 40155
len 40154
Bởi_vì 40124
nhà_quản_lý 40110
chèo 40102
tiếp_viên 40091
Tấn 40080
18/@@ 40077
giải_đáp 40058
Long_Thành 40055
ngài 40053
có_điều 40033
thạc_sĩ 40031
ghen 40028
xôi 40025
chính_trị_gia 40012
Trải 39989
đàn_em 39985
hoả_lực 39981
xuất_nhập_khẩu 39977
CT@@ 39952
os 39952
Thực_ra 39949
ati@@ 39948
lẻ 39946
ưa 39923
Thạch 39912
re 39885
thiêu 39880
38@@ 39878
NTM 39877
chị_gái 39870
tinh_vi 39867
Chỉ_huy 39861
ai_@@ 39842
ounce 39829
toạ_đàm 39826
ft 39821
S.@@ 39820
Đông_Bắc 39800
thuần 39794
thích_ứng 39793
duyên_dáng 39787
ranh_giới 39778
đắc_cử 39777
tỉa 39776
Hoàng_tử 39773
U20 39766
35@@ 39728
đẫm 39712
bảo_hiểm_xã_hội 39702
ĐTQG 39683
cấp_nước 39676
phà 39672
quy_tụ 39670
trình_làng 39662
thảm_đỏ 39658
đôn_đốc 39653
Hướng 39651
tụt 39640
biểu_dương 39635
Đọc 39631
ưu_ái 39614
Nhớ 39603
ngoan 39601
chuyển_hướng 39598
trung_cấp 39590
sụt 39585
Inter 39566
ez@@ 39566
ali@@ 39564
Trọng 39558
Danh 39553
đường_bay 39548
sinh_động 39546
2021 39528
lướt 39523
chung_cuộc 39521
2025 39517
26/@@ 39508
Bạch_Mai 39505
kinh_điển 39500
sức_sống 39495
Brexit 39486
thống_trị 39480
Nhân_viên 39479
Tuyên_giáo 39474
Van_Gaal 39458
Điển_hình 39458
Quá 39456
00 39452
thương_binh 39447
Ham@@ 39428
phân_chia 39427
cự_ly 39424
TNGT 39420
đa_năng 39398
ve@@ 39389
tiện_nghi 39385
ghi_nhớ 39384
tan@@ 39384
bệnh_lý 39380
ý_muốn 39376
F-35 39365
dư 39363
22/@@ 39362
bất_lực 39358
_th@@ 39354
Uỷ_ban_nhân_dân 39350
chúa 39347
vô_tư 39342
lệ_phí 39341
Ste@@ 39339
cuộn 39296
Viễn_thông 39274
chào_đời 39271
viền 39260
khoác 39243
nữ_hoàng 39235
ồ_ạt 39232
BT 39227
mưu_sinh 39213
Phạm 39207
tha 39194
nghỉ_việc 39192
thăng_hoa 39170
xâm_lược 39165
tor@@ 39157
râu 39142
cảnh_cáo 39138
sản_phụ 39127
Đôi_khi 39126
Tình_hình 39126
model 39126
xem_lại 39125
nới 39085
28@@ 39081
T-@@ 39075
Trọng_@@ 39073
Đỏ 39069
nội_thành 39066
thịnh_vượng 39065
Nguyễn_Minh_@@ 39052
vận_tốc 39049
công_trường 39032
Hành_trình 39030
bôi 39030
thực_khách 39027
Hoài 39024
răn_đe 39023
hội_chợ 39020
vắt 39017
kích_động 38998
200@@ 38992
ty@@ 38977
Ban_Bí_thư 38975
khốc_liệt 38972
mg 38948
el_@@ 38947
cớ 38945
Giảm 38935
rang 38910
tịch_thu 38895
Kỳ_@@ 38892
lây_nhiễm 38885
một_khi 38878
PC@@ 38874
đúc 38873
Nông_dân 38869
xi@@ 38867
140 38863
đánh_đầu 38856
Is@@ 38848
Hè 38839
tuổi_thơ 38837
nóc 38825
FBI 38810
22.@@ 38802
17/@@ 38801
Người_phát_ngôn 38797
Đội_hình 38791
Hội_chợ 38787
quạt 38780
27/@@ 38767
Ba_Vì 38764
21/@@ 38763
Sam@@ 38751
hiền_lành 38717
cảm_động 38714
mãi_mãi 38689
Geometridae 38679
ngỏ 38660
đúp 38658
Khối 38630
Assad 38625
tàu_khu_trục 38617
Pro 38606
kệ 38596
vuông 38596
đạm 38592
con_nhỏ 38582
Đình 38581
bao_vây 38572
đánh_cắp 38571
K.@@ 38565
lý_luận 38559
J.@@ 38549
lữ_hành 38542
ua 38529
cá_thể 38524
tải_trọng 38518
hậu_trường 38516
ODA 38513
cá_tra 38505
nghi_lễ 38490
mở_đầu 38483
ngẫu_nhiên 38480
làm_khách 38457
từ_từ 38443
Sức_khoẻ 38428
29/@@ 38421
chấn_động 38403
Tám 38403
Val@@ 38402
hít 38378
Điền 38366
ngoài_ra 38364
kinh_ngạc 38362
dàn_dựng 38360
U21 38343
he@@ 38341
ev 38339
age 38323
sản_sinh 38316
50@@ 38284
dễ_chịu 38265
Hari_Won 38262
tuỳ_thuộc 38252
sơ 38250
360 38240
quất 38240
danh_giá 38231
Quan_hệ 38220
máy_chủ 38213
Tạo 38193
long 38186
Gặp 38170
Ngay_lập_tức 38170
lin@@ 38165
phàn_nàn 38143
Bộ_Tư_lệnh 38138
Việt_kiều 38130
Tham_dự 38126
vững_mạnh 38123
giặc 38108
Khả_năng 38102
ch_@@ 38095
cúi 38082
đính 38079
gợi 38072
www.@@ 38065
Không_gian 38054
rớt 38052
phế_liệu 38046
tỷ_trọng 38040
hệ_sinh_thái 38039
mạ 38026
tình_thế 38022
60.000 38012
Hy_vọng 38006
NG@@ 38002
ada 37996
ôi 37995
huỷ_diệt 37993
Điệp 37988
logo 37978
Ứng_dụng 37975
Ben@@ 37969
Chất_lượng 37960
Niềm 37957
hải_lý 37935
hông 37934
_h@@ 37927
We@@ 37926
hoài_nghi 37926
trái_đất 37914
tiếp_thị 37891
hộp_số 37884
tiêu_chảy 37875
hứng_thú 37864
Nguyệt 37849
Ca@@ 37847
vo 37839
phụ_cấp 37824
1981 37824
Bank 37822
chế_tài 37808
biết_bao 37806
Hữu_Thắng 37801
tập_kết 37800
ông_xã 37797
ty 37786
ít_nhiều 37771
Chống 37764
des 37761
Chắc_chắn 37757
buộc_tội 37757
Sân_bay 37754
xấp_xỉ 37742
Chi_nhánh 37724
ton_@@ 37708
ích 37699
căn_bản 37682
TC 37680
24/@@ 37670
Trung_Hoa 37649
chuyên_trách 37619
10-@@ 37617
trầm 37591
binh_lính 37578
1,6 37565
Nỗi 37561
sọ 37554
đầu_bếp 37536
mật_khẩu 37532
450 37522
Quyên 37515
Quy_chế 37503
thích_nghi 37498
hạm 37483
chỉ_dẫn 37480
hô 37472
hiểm 37469
Tìm 37462
2.500 37462
mỳ 37446
phong_tục 37428
luận 37424
Đường_sắt 37416
miễn_dịch 37398
nể 37396
Trường_Sơn 37389
Vua 37386
Khải 37367
vĩnh_viễn 37358
Tấn_@@ 37331
tiên 37328
Dortmund 37322
đuối 37299
Cú 37263
Mô_hình 37256
GPMB 37250
ù 37245
DJ 37232
Câu_lạc_bộ 37232
Hương_Giang 37211
Gar@@ 37207
Thiết_bị 37201
Đậu 37199
cầu_thang 37196
.com. 37194
Bắt_đầu 37178
chủ_đạo 37178
Thoả_thuận 37171
like 37156
Khách_sạn 37146
Màu 37145
Vĩnh 37138
Đại_tướng 37134
sắc_màu 37114
thương_lượng 37102
chiến_lược_gia 37101
Đàn_ông 37092
Chọn 37090
Điều_tra 37086
Thị 37081
Tác_phẩm 37075
tin@@ 37074
trào 37052
Scotland 37050
Damascus 37032
nguy_hại 37029
thường_trú 37000
Nhân_@@ 36989
cách_biệt 36985
Trung_đoàn 36978
chỉ_thị 36970
nòng 36966
tha_thứ 36954
hệ_số 36943
quỹ_đạo 36940
TĐ 36939
Pu@@ 36921
Vy 36920
quyết_toán 36906
Thanh_Hà 36895
ắc 36887
đổ_vỡ 36879
es_@@ 36876
23/@@ 36870
quy_luật 36862
á 36860
Nay 36853
bẩm_sinh 36850
có_thai 36822
lôi 36821
thuận 36818
vật_lý 36817
thực_ra 36813
ba_mẹ 36810
ano@@ 36794
tù_giam 36784
Mục_đích 36783
đực 36780
Noel 36759
Mười 36755
hàn 36750
1/2 36743
don 36738
Liên_hoan 36729
giai_điệu 36724
kho@@ 36723
eri@@ 36721
dân_làng 36710
dữ 36703
Los_Angeles 36695
3-0 36690
công_sở 36688
kiên_nhẫn 36678
số_một 36671
soạn 36660
mũ_bảo_hiểm 36652
Trung_tướng 36652
Hạm_đội 36643
vương_quốc 36640
Bố_mẹ 36633
lòng_đường 36632
Tên_lửa 36627
Nhà_@@ 36623
hành_lý 36623
Đội_tuyển 36620
sắm 36616
nội_y 36615
đột_quỵ 36614
Robert_@@ 36609
thẩm_phán 36607
thay_mặt 36591
năng 36569
90@@ 36556
AI 36546
tượng_trưng 36539
Manchester 36539
SJC 36535
xu 36530
nha 36517
số_hiệu 36514
nạo_vét 36513
kết_án 36509
chì 36509
mềm_mại 36506
chi_phối 36502
1976 36499
Man_United 36484
ông_@@ 36479
Nâng 36449
Thiếu 36442
Thế_là 36410
trả_thù 36381
Audi 36376
dấy 36372
za 36370
ang_@@ 36370
nghiệm_thu 36363
Trung_tá 36362
tổ_tiên 36339
CC 36335
Vậy_mà 36331
1/8 36329
lũ_lụt 36322
tín_ngưỡng 36319
Tân_Phú 36319
phần_thưởng 36295
bỏ_rơi 36285
dân_thường 36281
thiếu_niên 36272
Cận_cảnh 36271
cá_sấu 36266
ari 36261
phấn 36237
chuyên_khoa 36226
lang_thang 36224
Bảo_an 36198
cây_cảnh 36195
CATP 36195
dòng_họ 36191
11@@ 36188
tất_yếu 36187
quanh_năm 36186
tạo_dựng 36181
TDTT 36181
dấu_vết 36178
Getty 36169
ran@@ 36161
hệ_luỵ 36158
Văn_bản 36150
nhuyễn 36144
Cảm_ơn 36136
hàng_hiệu 36135
bàn_phím 36134
st 36132
tưởng_chừng 36119
hữu 36114
cốt_lõi 36111
ten@@ 36101
1,8 36090
giết_mổ 36068
nhà_riêng 36063
Sắp 36059
Bình_Tân 36056
Đối_tác 36030
đồ_dùng 36021
Khán_giả 36012
# 36011
cơ_bắp 36008
nhỉ 36004
Lạc 36002
nôn 35971
keo 35970
công_phu 35968
ASIAD 35962
hữu_hiệu 35959
băm 35958
thành_đạt 35951
Huy_@@ 35950
chuyên_viên 35947
Truyền_hình 35934
trước_kia 35926
Cao 35922
Lý_Sơn 35912
hấp 35912
hành_xử 35897
25.000 35889
Khôi 35888
hình_dung 35862
ro 35847
vs 35841
ala 35837
Mua 35831
oxy_hoá 35824
13.@@ 35811
sẹo 35802
At@@ 35801
mạnh_tay 35776
hứng_chịu 35769
Thăng 35744
NĐT 35736
đẩy_lùi 35730
châu_lục 35722
thiêng_liêng 35715
Kiều 35714
26@@ 35712
nhất_thiết 35709
đời_thường 35706
khoả_thân 35702
ill@@ 35686
lịch_trình 35683
tâm_bão 35682
xô 35681
dệt 35678
gây_rối 35657
PL 35644
Cam@@ 35636
Tư_@@ 35626
rưỡi 35620
Vạn_@@ 35616
dẹp 35615
AT@@ 35613
Vietnamnet 35608
Đa_số 35599
gu 35598
phẫn_nộ 35594
khuẩn 35592
công_@@ 35587
thí_nghiệm 35582
Điện_Biên_Phủ 35580
sương 35574
gián_đoạn 35563
í@@ 35554
giặt 35550
13/@@ 35550
xé 35541
hậu_thuẫn 35540
Sina 35521
Pan@@ 35515
dệt_may 35509
chạy_đua 35505
CD 35487
ex 35476
1973 35451
Cách_mạng 35447
XIV 35436
cọc 35425
chót 35411
Hàng_loạt 35408
trăng 35401
rêu 35390
vắc_xin 35381
Hậu_quả 35373
năng_khiếu 35368
sành_điệu 35362
US@@ 35352
oC 35350
khởi_điểm 35347
cải_lương 35346
áo_khoác 35342
khát_vọng 35342
Đề_nghị 35337
vé_số 35335
thuỷ_tinh 35334
Wal@@ 35330
giò 35317
dứa 35301
cơ_sở_dữ_liệu 35287
hộ_chiếu 35271
thung_lũng 35270
_tr@@ 35262
bịt 35245
Đông_Anh 35243
UEFA 35240
hi@@ 35229
for 35226
hơn_bao_giờ_hết 35222
thông_cảm 35221
nhận_dạng 35218
19.@@ 35214
1978 35207
sữa_chua 35203
đồng_phạm 35199
Hoàng_Văn_@@ 35188
Lầu_Năm_Góc 35179
ra_tay 35171
ê 35147
cơn_sốt 35146
xác_lập 35121
lệ 35104
khởi 35102
biết_ơn 35099
phần_cứng 35088
nghị_định 35087
ker 35069
c-@@ 35067
lén 35061
trình_duyệt 35059
San_@@ 35057
giã 35054
bàn_bạc 35052
hang_động 35051
khích_lệ 35045
up 35044
đại_@@ 35042
Lá 35032
Airlines 35031
để_dành 35029
ĐTVN 35029
ái 35023
phím 35021
12% 35016
Bích 35012
cơ_khí 35012
SE@@ 35004
Bình_Minh 35003
thâm 35000
con_tin 34997
ts@@ 34991
ăn_@@ 34988
Giải_pháp 34983
IMF 34971
siêu_âm 34966
/@@ 34962
kov 34961
đặc_tính 34952
ủ 34935
bất_kể 34929
inh 34929
hộ_khẩu 34928
Bích_@@ 34919
Màn 34902
Thanh_Trì 34881
bán_dâm 34877
gia_chủ 34872
tỉ_mỉ 34866
ama 34851
mồ_côi 34848
Gia_Lâm 34846
file 34838
hộ_tống 34834
Noctuidae 34827
ach@@ 34824
10,@@ 34813
gọn_gàng 34811
Serbia 34804
tái_xuất 34797
Peru 34784
thiên_đường 34784
der@@ 34777
sa_mạc 34774
SUV 34770
Lưu 34770
Nguyên_@@ 34764
Hân 34764
trút 34764
150.000 34759
kiểm 34745
chu@@ 34743
ghi_chép 34735
oo@@ 34735
khéo 34726
MB 34715
bao_bì 34713
khắt_khe 34708
biệt 34706
Hà_Hồ 34700
đảo_chính 34698
ani@@ 34690
37@@ 34682
Bra@@ 34682
lập_trường 34681
ash@@ 34657
ngang_nhiên 34629
Năm_ngoái 34624
Năng_lượng 34613
tế-xã 34607
17.@@ 34606
bàng_hoàng 34589
F-@@ 34587
nhộn_nhịp 34586
TƯ 34583
tất 34581
độc_thân 34565
UAE 34561
Tam 34548
phóng_xạ 34548
Nguyễn_Thị_Kim_Ngân 34547
Em@@ 34539
khát 34538
thiên_thần 34528
cầu_kỳ 34526
sp@@ 34524
Pal@@ 34522
1974 34521
Nadal 34508
trình_tự 34507
Hội_đồng_quản_trị 34503
đức 34497
kỳ_diệu 34487
Hùng_@@ 34471
gieo 34461
chủ_nhật 34459
stress 34458
lặng 34439
be 34428
vùng_sâu 34427
Sa_Pa 34421
115 34420
tây_nam 34419
nương 34410
2.0 34408
ver 34389
hồn_nhiên 34382
ce@@ 34381
Tổng_Thư_ký 34366
lĩnh 34366
Cho_nên 34358
tự_phát 34355
Phường 34348
phân_luồng 34335
thuở 34332
lúng_túng 34320
VKS 34320
hội_chứng 34319
Mùi 34315
Sơn_Tây 34309
Viet@@ 34308
TN@@ 34305
đăng_cai 34303
39@@ 34275
vá 34266
thấu 34261
laser 34257
Cánh 34236
Tuổi_trẻ 34229
ur 34226
Uruguay 34222
Uỷ_ban_Nhân_dân 34209
Sư_đoàn 34207
Mat@@ 34197
ra_sức 34193
TMCP 34183
Tuỳ 34180
ao@@ 34177
khiêu_khích 34170
chuyên_án 34163
mô_phỏng 34161
Miss_@@ 34156
bộ_nhớ 34155
KT 34151
Florida 34150
mác 34132
5,5 34127
khuất 34110
Bắt 34110
Tháp 34103
bo 34102
Bloomberg 34093
3-1 34093
Lớn 34085
Hường 34080
Trước_mắt 34078
vo@@ 34077
đấm 34066
ke@@ 34064
Quán 34040
tiền_nhiệm 34035
Sở_hữu 34032
quần_vợt 34023
hỗn_loạn 34017
Gò_Vấp 33995
Xuất_hiện 33989
i_t@@ 33988
Pri@@ 33988
cuộc_chơi 33984
Minh_Hằng 33982
ghi_âm 33982
lấn 33981
Tôn_@@ 33978
ì 33974
ge 33958
hoảng_loạn 33953
mộc 33943
thu@@ 33938
2/3 33936
lùm 33932
Đồng_@@ 33931
Thực_phẩm 33922
Che@@ 33920
Đưa 33914
huỷ_hoại 33911
bảo_trợ 33910
D.@@ 33900
Na@@ 33896
uy@@ 33883
vùi 33876
Hoàng_Thị_@@ 33870
trí_thức 33869
Nàng 33846
bắp 33842
thời_lượng 33839
Trần_Ngọc_@@ 33827
sưu_tầm 33826
an_ủi 33815
cẩn_trọng 33810
60@@ 33797
.0@@ 33793
Bất_động_sản 33790
Yu@@ 33777
Ankara 33772
truyền_cảm 33770
nhiếp_ảnh 33759
trì_hoãn 33755
rút_tiền 33751
Sức 33746
ida 33743
cấm_vận 33731
bao_phủ 33731
đắt_giá 33730
Đ.@@ 33721
đầu_tay 33717
Mer@@ 33716
thông_thoáng 33715
Hùng_Vương 33712
Taliban 33710
chính_quy 33700
Huyền_@@ 33698
san_hô 33689
gián_tiếp 33687
bộ_đồ 33677
Han@@ 33672
tum 33666
ngoại_trừ 33665
tội_ác 33651
Vua_@@ 33646
Cuốn 33646
cấy 33643
15,@@ 33641
Kỳ_Anh 33629
Trung_thu 33628
Dubai 33628
Vietnam_@@ 33615
Hỏi 33613
thiếu_thốn 33611
Nm 33608
quần_thể 33608
quái 33602
sơ_mi 33593
Hoài_@@ 33590
địa_chất 33581
ân 33581
phản_bội 33577
dư_nợ 33577
Lai 33574
Valencia 33567
học_đường 33560
Bữa 33553
Tuấn_Hưng 33552
trí_nhớ 33546
đàn_anh 33534
Phòng_chống 33521
Dẫu 33518
Kiến_trúc 33518
bể_bơi 33505
măng 33505
bán_chạy 33478
nguyên_vẹn 33475
biến_dạng 33465
Đăng_@@ 33460
tiến_công 33450
bỗng_dưng 33446
Gương_mặt 33431
buồng 33428
tham 33426
Texas 33422
hư_hại 33422
điệp_viên 33410
Bas@@ 33408
Đ. 33405
Dân_tộc 33399
ngứa 33375
ục 33373
80.000 33357
22@@ 33345
lung_linh 33341
đò 33332
ử 33330
nhốt 33326
rầm_rộ 33319
Khê 33318
Tiên_@@ 33307
bầu_chọn 33287
đông_lạnh 33286
min@@ 33282
đơn_phương 33273
mệnh 33265
Thần 33264
võ_sĩ 33251
hình_thể 33250
cử_nhân 33238
nhập_cảnh 33231
Eu@@ 33230
độ_ẩm 33228
18.@@ 33224
chậm_trễ 33221
đón_tiếp 33210
Đấy 33207
gầy 33206
áp_thấp_nhiệt_đới 33206
che_giấu 33202
Lưu_ý 33199
Củ_Chi 33198
Bất_chấp 33175
truy_tìm 33164
Đệ 33164
Hảo 33162
dưỡng_chất 33156
tế 33154
xót_xa 33149
sào 33146
đa_cấp 33145
SGK 33140
ràng_buộc 33134
am_@@ 33133
Lý_Nhã_Kỳ 33123
thân_nhân 33120
chiều_hướng 33115
ức_chế 33110
ứ 33107
15.@@ 33106
sừng 33101
đậm_đà 33100
Cung 33083
xa_xôi 33059
Quan_trọng 33051
chạm_trán 33043
to_@@ 33031
du_thuyền 33029
cholesterol 33014
thua_kém 33013
M-@@ 33012
cá_mập 33004
yo@@ 33000
cừu 32997
SH 32993
tay_chân 32992
:@@ 32984
trọng 32973
trục_trặc 32971
Ser@@ 32967
VnExpress 32962
Cụm 32962
cử_chỉ 32956
trái_ngược 32941
ốp 32928
sắn 32927
mặn_mà 32910
Vinamilk 32900
Gra@@ 32889
linh 32880
Quan_điểm 32878
mong_chờ 32874
mở_đường 32865
chiếm_đóng 32864
Thượng_tá 32855
1,4 32834
gặt_hái 32819
vũ_khí_hoá_học 32814
Thạnh 32810
bất_kì 32805
tệ_nạn 32805
16.@@ 32802
ra_@@ 32801
Á@@ 32798
Air@@ 32792
WB 32789
lâm_sàng 32784
lạc_hậu 32781
đầu_cơ 32760
Zika 32753
Huyền_My 32729
ban_ngành 32723
bánh_xe 32722
hợp_tác_xã 32698
Nguyễn_Quang_@@ 32692
vác 32689
toạ_lạc 32689
n_t@@ 32682
Mặt 32679
thực_đơn 32667
30-@@ 32658
lời_lẽ 32656
hài_cốt 32649
CA@@ 32631
thông_tư 32631
Col@@ 32625
ngày_tháng 32624
thi@@ 32617
we@@ 32613
May 32590
son_@@ 32578
thanh_lý 32575
đông_đúc 32574
bất_bình 32574
ell 32572
cà_rốt 32565
phát_nổ 32564
hét 32557
ir 32557
bàn_chân 32551
Nội 32540
lan@@ 32539
hacker 32520
liên_quân 32518
tinh_trùng 32512
Tehran 32507
đường_cong 32505
ino@@ 32500
bí_thư 32496
Hạt 32493
xích 32490
pa 32489
Hình 32488
12.000 32474
1950 32465
Bel@@ 32463
thấu_hiểu 32443
Tử 32416
Mong 32414
Vin@@ 32413
massage 32412
Nguyễn_Hoàng_@@ 32411
cây_số 32407
đường_hầm 32391
170 32372
lều 32371
vùng_xa 32371
liên_thông 32368
mong_manh 32364
đẹp_trai 32359
tes 32355
Cúp 32354
phòng_bệnh 32347
Olympic_@@ 32341
BlackBerry 32338
Địa_Trung_Hải 32336
GV 32326
Ca 32318
Điện_thoại 32315
Thanh_Bình 32314
Tình_cảm 32307
1,7 32306
res@@ 32305
Vượt 32303
Kẻ 32303
tử_tế 32302
can@@ 32301
hoàng_tử 32292
khát_khao 32292
75% 32286
bao_trùm 32285
che@@ 32283
ero@@ 32282
AS@@ 32281
ám_sát 32277
Dường_như 32269
Atletico 32269
400.000 32268
giang_hồ 32256
mẹo 32240
GDVN 32239
vững_vàng 32238
bán_đấu_giá 32237
S-400 32228
mỉm 32211
Hàng_không 32209
địa_danh 32206
Cát 32191
đá_quý 32175
MW 32169
Moon 32169
heroin 32167
hỏi_thăm 32163
yl@@ 32157
Dựa 32157
Giá_trị 32129
Uyên 32124
phòng_tránh 32108
khống 32089
phấn_khích 32087
Sóc_Sơn 3